/**
  ******************************************************************************
  * @file    network_data_params.c
  * @author  AST Embedded Analytics Research Platform
  * @date    2025-12-17T15:32:49+0100
  * @brief   AI Tool Automatic Code Generator for Embedded NN computing
  ******************************************************************************
  * Copyright (c) 2025 STMicroelectronics.
  * All rights reserved.
  *
  * This software is licensed under terms that can be found in the LICENSE file
  * in the root directory of this software component.
  * If no LICENSE file comes with this software, it is provided AS-IS.
  ******************************************************************************
  */

#include "network_data_params.h"


/**  Activations Section  ****************************************************/
ai_handle g_network_activations_table[1 + 2] = {
  AI_HANDLE_PTR(AI_MAGIC_MARKER),
  AI_HANDLE_PTR(NULL),
  AI_HANDLE_PTR(AI_MAGIC_MARKER),
};




/**  Weights Section  ********************************************************/
AI_ALIGNED(32)
const ai_u64 s_network_weights_array_u64[13647] = {
  0x220e222f4481acc1U, 0x7ff1f31195928651U, 0xbdd74cb50e7f7a74U, 0x48381d4532b19f04U,
  0x5d05524281a4a8faU, 0x4f26ce81b91caa1bU, 0x44c681581abbU, 0x4800000000000000U,
  0x89487f88026e8cd2U, 0x40f057eda436b3a6U, 0x5ea20b2d81cd0f7fU, 0x284b0535fa953357U,
  0xe2a981bfa7811538U, 0x551bbc07U, 0x7f59560000000000U, 0x189a9dad8d1b0bd5U,
  0x5819c67f7b266U, 0x0U, 0xfffffffcffffce74U, 0xffffffc400000102U,
  0xfffffe34ffffffecU, 0xffffff66ca2a82c0U, 0xffffff6600000005U, 0x4208fffff80fU,
  0x1a0c0000000U, 0xc0000000000003b2U, 0xd600bdad10f06c29U, 0xfd310017fc0dbaU,
  0x400d4ce06ea1d1eU, 0x80d0005090abcU, 0xe000e4ed0cfceaf8U, 0x51d001619d2caU,
  0xe900f9be05ef4119U, 0x95900ffeb27abU, 0xc00e9dcf8e2f518U, 0xf80003f10cb7U,
  0x3c00dfe0f9f9ff04U, 0xf9df00e8061989U, 0x710007d6f6f8750bU, 0x15660000e67fbbU,
  0x320043c6ecdce6e4U, 0x1e11000bd82ac9U, 0x6d0017c3e2ebd5edU, 0xdbd00c8e71e86U,
  0x0U, 0x0U, 0x0U, 0x0U,
  0x0U, 0x0U, 0x0U, 0x0U,
  0x0U, 0x0U, 0x0U, 0x0U,
  0x0U, 0x0U, 0x0U, 0x0U,
  0x0U, 0x0U, 0x2c00043afc4a14f5U, 0xafd0094fc0f31U,
  0x9001e16f416ede6U, 0x14bd00d80deb44U, 0x3400d53af73fbfecU, 0xee8100fc02e911U,
  0x7000414fa33eff7U, 0xf6dc00b00ed033U, 0xf000000f304d7f4U, 0xfdc100c20ce91dU,
  0x200df1dfd1c0302U, 0xf9db00f607fc1eU, 0x700dbdaf2ea1ad4U, 0xebae00b00b0cf3U,
  0x700e6c5f4c238dbU, 0xf0c000cf0731e4U, 0xdb00f5b505cb74fdU, 0xf9f9001ff13558U,
  0x41003a340d41fffdU, 0x30350006de3013U, 0x25002617fc1addf8U, 0x1ee800e9e6fafcU,
  0x6d00dc10f31c9bfcU, 0xf4810000df08aaU, 0xfa0000faff071a05U, 0x170b00fbf0f105U,
  0xf900fa2606fbeffcU, 0xbf40009fed3e3U, 0xb00d9280136c6fbU, 0xedac000cf8cdffU,
  0x9e00b8ed19ce060aU, 0xc71001503c7a9U, 0xbe00b221210a180dU, 0xe632003603bcf2U,
  0xa200b6e70819020cU, 0xe0c3001d0eac1dU, 0xb500289302d92311U, 0xe3800f301033eU,
  0xe40049c2f8fc0403U, 0xed300cf02e247U, 0xf000bdafeeb20fcU, 0xfe9e00d030245bU,
  0xc70010f80afa7529U, 0xe718002525097fU, 0xc000f8d304feff13U, 0xe0ef00f729d211U,
  0xbc00d586eec2c6f5U, 0xd2a30037fbea1cU, 0xdd003d0b05fc20faU, 0xe70a00fd38b861U,
  0xcb0012acf8f5e800U, 0xf4d300c514cf0aU, 0x32aadbb399f4U, 0xfda200f6fcdc16U,
  0xc600af3ff90e0204U, 0xdfcf00043de015U, 0xb900bc5c0a21dc0bU, 0xe7fd00d440d000U,
  0xcc00e25a1b23060fU, 0xef4f00cd2ae828U, 0x100e9de01d5e0d6U, 0xf70900ce001a8bU,
  0x6000de0efb4d9d6U, 0x2c600d8f22fa4U, 0x2e000118facf03f4U, 0xf3df00dc0033e6U,
  0xe800ebe91fd93b11U, 0xef7f00e9f22996U, 0xf100fbee18ed1d04U, 0xff6500b9fb13c5U,
  0x14001cf10c0813fbU, 0x134c00b8f622ebU, 0xff0010e3fff0fff4U, 0xefe0012eaf906U,
  0xf40000fb03021cfdU, 0xf00016f70314U, 0xea001d060b004711U, 0x20250015f31229U,
  0xe7001eba03e01709U, 0x271100e9081902U, 0xbc00fcca03e4f50aU, 0xff4100960604bcU,
  0xfd0042b6efdae20bU, 0x153c00a2e5fddcU, 0xcd000ae10ef21e12U, 0x12400e20615ffU,
  0xbc00e2de11ff530bU, 0xda1100d201291fU, 0xdd00fce7f8fd41efU, 0xd5b500e20efe7fU,
  0x150029e1050b1203U, 0x1b5f00e7cf1db3U, 0xe700f4d301e83a00U, 0xf2500f7ef26c8U,
  0xb000d3f512ec2efdU, 0xf84000040cf7f6U, 0x8001fcaf9d4fa03U, 0xb3200ffec10c0U,
  0xf100ece107db1903U, 0xfb2c00f9e217beU, 0xd500ce0912f33114U, 0xed440003e90ed5U,
  0x4000ad8fbe9ec01U, 0xfc0900ecef06c6U, 0xf500ecdfffdbfe08U, 0xf01e00fdec0aacU,
  0xc300bd030dd8030cU, 0xde3600f2f9f481U, 0x0U, 0x0U,
  0x0U, 0x0U, 0x0U, 0x0U,
  0x0U, 0x0U, 0x0U, 0x0U,
  0x0U, 0x0U, 0x0U, 0x0U,
  0x0U, 0x0U, 0x0U, 0x0U,
  0x47002401e11407e7U, 0x2d9000fee2808U, 0x1000f6dee6e0e3e9U, 0x3cc0013ce1bb7U,
  0x3500d5e4e3f7d3eaU, 0xe7810000e01dbaU, 0x3a0018f2ef22cff0U, 0x6ed00f6ee0beaU,
  0x15000df1edf7c9f8U, 0x10db001ce914dbU, 0x1e00e915f1ffc2e5U, 0xf1b60007f309e1U,
  0x4b00363ae62fcd03U, 0x1caf00f210f22dU, 0x25004224eb0dc2ffU, 0x29d400ff02fa0dU,
  0x1500ff12f311dbf5U, 0xf2bb000c00fb11U, 0xf3007f94e5ff91efU, 0x3abf001904b440U,
  0xea00120200060c01U, 0x2ec000df0000cU, 0xb800febc15ef5506U, 0x25610019045aedU,
  0x16003f93dff6cefeU, 0x32d900d801f4d7U, 0x9003ae2e706cafcU, 0x10100ffe4caebU,
  0x50016d4faf83f0eU, 0x1e510028dd36e9U, 0xf300bf06fb1a2b00U, 0xe4ad000a1211eeU,
  0xf10016b4ec0b02ecU, 0xfe1500d90ed7e8U, 0x5000fa8fbeb19f9U, 0x660007ea25cdU,
  0xf500fa2ef8e9fa07U, 0xd3fb001320d61cU, 0x1600edf4f3ed280aU, 0xe41000e31304f8U,
  0x37001fe0f3ec25f4U, 0x80500e6012c0fU, 0x3700fe39e0f8d0faU, 0xe69400c3371716U,
  0xe900f8d6e4cfb2ffU, 0xd40d009f15c3eeU, 0x52003102f2fefbfdU, 0xaec00ab051d23U,
  0x50005305efe0dec7U, 0xde600810768cbU, 0xf500cfe5fcee10cdU, 0xc2da00ca22f826U,
  0xa000f2a0934f4f2U, 0xf20200d11cef60U, 0xcd00de3915322cf3U, 0xce2f00ea0ce12dU,
  0x9a00cfdc16d22af6U, 0xc63500c00001c9U, 0x22002495f6a6f4e8U, 0xfb180099f244adU,
  0xdd00b75404352b0fU, 0xd30c00fb39d64fU, 0xc800e0edfd040811U, 0xd50200cfffdddaU,
  0x390069bdf2cff1f7U, 0x303a00a9ed26edU, 0xe500e97f0a13a9f8U, 0xf3f400dc22ace5U,
  0x9003cebf205cefeU, 0xfbe400e3fdedcdU, 0x6f0074c0e1e9fdf3U, 0x400f00e1f94524U,
  0x13003dd9f5fed3f6U, 0xdc40002f8e21bU, 0x11002801fa12edeeU, 0x21e20010f7f94cU,
  0x100044b0f62fa02U, 0xe0400390cf25aU, 0xf004f86f2f2d804U, 0x301000d3fc15f8U,
  0xe500f9e709e11810U, 0x12270001ef09c7U, 0xb800c73208ecdd07U, 0xe913000401bdb8U,
  0xb200fb9c16cb4415U, 0x37f0011f014b6U, 0x8b00912716d44106U, 0xb93d003f0ab818U,
  0xbf00ca0b00f9e0f9U, 0xedbe00061dbd40U, 0x600f409f80fd4f4U, 0xf8c7000404e70cU,
  0x1300ee0cf712dafbU, 0xf9b20003f8f1f8U, 0xfe00d7def305e7faU, 0xf08100fa03ecedU,
  0xdd00e11a030ade00U, 0xf4ec000009d7efU, 0xf800f305fd10edffU, 0xfad500eefde5f0U,
  0xf000e6f3fc01f3f4U, 0xf0c5000c0cebefU, 0xd000d22408132addU, 0xf3fc0035030030U,
  0xf400f206040c33dbU, 0xf2fc0013f7ff43U, 0x900ffff080039eeU, 0xf2110040f10963U,
  0x0U, 0x0U, 0x0U, 0x0U,
  0x0U, 0x0U, 0x0U, 0x0U,
  0x0U, 0x0U, 0x0U, 0x0U,
  0x0U, 0x0U, 0x0U, 0x0U,
  0x0U, 0x0U, 0xbc00a8c909cf6115U, 0xf02f00210917acU,
  0x1100ccd3fce76a16U, 0xf319001b0536b7U, 0xc000481f6d9250fU, 0xd2c00e7ef1096U,
  0xe400e5fffaf9f503U, 0xd904000bfcd7f8U, 0x170009e5f205faebU, 0x5d50037e312f8U,
  0x4e0018b5dceb13efU, 0xac000f2d632a8U, 0x3600dd4efc2de1e0U, 0xcf8500ee29e450U,
  0x5800291cf34fbcdfU, 0x259e0013ec0846U, 0x710038fdda25c0cbU, 0x1b9700fce5360cU,
  0xbd00c8e602fb2af7U, 0xfef60031030713U, 0xdb00e4de05062bf7U, 0xff1400ffe41ce9U,
  0xf900e1d5fff700f7U, 0xebfa00e8e60bd1U, 0xc400cb210a0a2512U, 0xe6e8003212fd23U,
  0xcf00e9e50bf6211fU, 0xf81c0022f90df3U, 0x1200f4ab01ee3c30U, 0xfe1100f7e13ee5U,
  0xfc00e707fc1312f1U, 0xe9e900fc0b050eU, 0xf900e5c5fbdf13f0U, 0xec2300f2ea19deU,
  0xe9001881f9d71df8U, 0x24700f9c63ee9U, 0xbd00c4e70cef4afdU, 0xf1fe00e80d0029U,
  0xdf00bc2b0c2bfbfaU, 0xf3e60009fed52eU, 0xc200b278142ef5fbU, 0xf1e9003d268d6fU,
  0xde00d82b0e0e29ffU, 0xee260002e5f3dfU, 0xd600ea260b062203U, 0xf1ec0016f1e80fU,
  0xbc00aa570c170e0eU, 0xedf300fe09bb05U, 0x930096dd0bcd6809U, 0xe95b0018e304dcU,
  0xab00a60b09db490eU, 0xee1d000eef03d3U, 0xac0081310efd1f08U, 0xe60900ec03caabU,
  0xe500061ef8050c05U, 0xfcfb00e61d0a0bU, 0xff0029d6defbcaf8U, 0xfe1400bfe7ede0U,
  0x7f006c0cec07d2ebU, 0x2cdd00a2db2e12U, 0xe500d2f208001df0U, 0xf0f100c51649e6U,
  0xe300d2e4fe1c0fe6U, 0xd7d900dd27dd1cU, 0x1400212cea259bd7U, 0xf6b500b8eec933U,
  0xd700d1f314fc58e1U, 0xdc5400f9164700U, 0xc400b6161c1a49edU, 0xb123001922ef20U,
  0xc900bf24080d0dc9U, 0xa4db00f532ba36U, 0x1e003611fd29da02U, 0x1b0e00aee80cfdU,
  0x11001138012501fcU, 0x16eb00db02f42cU, 0xe800de6a0510df00U, 0x8fd00d70fda2aU,
  0xe900fdd909f42b05U, 0x2700ec0b0007U, 0xbf00b42f09dbfdf3U, 0xda0800e312caf6U,
  0xa800ba1301dc0eeeU, 0xd8d800c70dce0cU, 0xba00e92011f7fefdU, 0xea2700f312bd14U,
  0xba00dd10fff804deU, 0xdfd100e62bc667U, 0xed001a080cfe55f7U, 0x5fc00df12067fU,
  0xe500c21506e20de6U, 0xe0dd00fc21c50cU, 0xb700b62d17fc3504U, 0xcd21002e1cd729U,
  0xc800a9ea13dc782bU, 0xe8630022012e09U, 0xf400f72af41bc8e0U, 0xe789001504b71cU,
  0xc200cc40fefad2fbU, 0xc1d5000532bd0aU, 0xb400f4f901b2101cU, 0xde3100d30cefe5U,
  0x51007f00ec3690e0U, 0x34a500ccf4ff1cU, 0x33000ff5f202d8ceU, 0x59300b90560fbU,
  0xeb00df170de120e0U, 0xdcff00fa301946U, 0xc004681dcdbbbfeU, 0x1ecf00e4e407ecU,
  0x280026beecf3c9ffU, 0x24d100ecdf18f0U, 0x540038d3f3d5daf4U, 0x1eb000e2d32b05U,
  0xf80022b2e9ee1305U, 0xbed00f5f30cf9U, 0xc0018c2ea0be705U, 0x9ca00e7ea1208U,
  0x4d002be8f4f0c6faU, 0x16be00e7e20c1bU, 0x7002eeaf0fecc03U, 0x160e00e3eefde1U,
  0x1c0027dcea0ccd04U, 0x6e400efd60515U, 0x340042d7e7edd5fdU, 0x3ab0006e41240U,
  0xe000b95628216111U, 0xbb6e008168f217U, 0xd700e1d5ecf6b5ffU, 0xc6fd0096f8c6cbU,
  0x2d0bd7ee8df2U, 0x23d700cdeae64aU, 0xe600e45811edd805U, 0xad1000d937bf1bU,
  0x80024f0deeaafffU, 0xf79f00cf1bbf2eU, 0xe001d4e04120a00U, 0x210100f91df92fU,
  0xd003831fc1aad02U, 0xbc000c623a761U, 0x35003210ea24a700U, 0x37e200a2090f1bU,
  0xfc00290fffd911fdU, 0x2a5200e5f83de5U, 0x800268503c53113U, 0x1b4500e2e946b4U,
  0xdd00fbad01e62f12U, 0xf32400d0022ae0U, 0xad00dcd111f62924U, 0xe1080002f1f018U,
  0xc40008c90aeb320fU, 0xf65200e604fd03U, 0xcd00f6a7f6f3fa01U, 0xd40900d414def5U,
  0xce00f5e9fce7ea17U, 0xfed1000008b01eU, 0xbc00b34a0e0124ebU, 0xba040011449065U,
  0xd600eb3a1211d3ecU, 0xdaf000ff189e6eU, 0xd000f27f071bea0aU, 0x9c700241cc068U,
  0x5900e8dbfad33801U, 0xffea00c2fb48d3U, 0x150009f50000d6e6U, 0xf7bd00050bf25aU,
  0xf00df7f0342f6f3U, 0xeeab00481de158U, 0x40001399faeb210bU, 0xfdeb00a9f14fc1U,
  0xdc00d1e9fcf8f300U, 0xeaa400ef14e32aU, 0xa00186ffb30e6f2U, 0x5b900111ee275U,
  0xf6000dd006dd450cU, 0x1244009b156dd5U, 0xb30094df13c23004U, 0xb81300ee0a18fcU,
  0xe800f31709fc1bd6U, 0xd8da000c1c0155U, 0xf900dafe121d2e0fU, 0x135f00aff518d8U,
  0xf10004ddf8f92c06U, 0x104200b0f722daU, 0x13002c9febe606feU, 0x1b2f009fd82fb8U,
  0xdf00f3f302db07fcU, 0xfe2f00ebfffdebU, 0x2800f6e0ebffe3f3U, 0xebf000dce607f1U,
  0x2e000be3e40398dcU, 0x8c900d4e8eb16U, 0xd500f5290805ffe0U, 0xf8d3000326c758U,
  0xf700fa290519edd6U, 0xffca00fa24dd5dU, 0xed00eb65ff19f3dbU, 0xf9c7002e1dee7fU,
  0xe000fde709e5e8e8U, 0xe7fc00210fbd04U, 0x900e422031df9deU, 0xd1dc005714b937U,
  0xec00e247093b03e8U, 0xffee0021359f40U, 0x9001713050acde5U, 0xefc500230fcb1fU,
  0xf700fd17fd15e2ebU, 0xf3c40008fbe72dU, 0xef00ef24f81dd6f0U, 0xbc300d014dce9U,
  0x22003916fb19b0eaU, 0x13810005f7d824U, 0x2500190df92bc6f9U, 0x21c800e7fdfdfcU,
  0xf40003ef0820f1f9U, 0x10d600d70dfb04U, 0x7f004709f8f9b0eaU, 0xdd900c01614bdU,
  0x2e00ccfb0f0ae607U, 0xf705000af515b8U, 0xf500cebf06f83ef8U, 0xf6fa004c1ff810U,
  0x3a0029c303be1bf8U, 0x132500bff74495U, 0xde00d2de1fc16a0cU, 0xf941001b1924d6U,
  0x28000150093339e4U, 0xf90000f424fcdfU, 0xcd00b4f009eb360eU, 0xea0800fc06f8bfU,
  0xa700a15d20272713U, 0xe93200ea20a8f4U, 0xe700d0280555cbfcU, 0xf6d300ef13a325U,
  0xe00019d8fb1ae7feU, 0x1a2200d805f304U, 0xc9000c0afc08c9eeU, 0x112000d600d504U,
  0xdd000c4c060fe001U, 0x1e1800fcf4dd4eU, 0xa900a0ee120d6512U, 0xdc28000b100d2eU,
  0xcf00a790fdd64605U, 0xde4c009ef617c0U, 0xbc00ea81f1c00805U, 0xf52a0092f0ecbbU,
  0xd8001a2d0005eae3U, 0xfec5002710c149U, 0x2c002908050337f9U, 0xff0b0030f11b1eU,
  0x7f00f9bffaf247e8U, 0xefef00d0ea69dbU, 0xd000e247043be800U, 0xfee3001d2be552U,
  0xd300f34e0f12f208U, 0xf0fc00cc44d52fU, 0x1500f725fcdd2b23U, 0xfa2600e7292514U,
  0x14001927e41e90d2U, 0xfaa000be15ec10U, 0xe900e5e3e4c3d4deU, 0xf3e2009a0938acU,
  0xcd00e8010edc04f2U, 0xc80400e55ae65eU, 0x45004fbce4bdcab3U, 0x33f70081ea67c4U,
  0xe60003a809c561c4U, 0xb2800a30f5dd7U, 0xcb00c2321e074ddfU, 0xc234000540f42eU,
  0xf100db7f0659cc09U, 0xefe500ce13d62bU, 0xad00b9350e152621U, 0xfd3d00d30ee6ecU,
  0xfe00fdef13ee6e19U, 0x227d00c60339eeU, 0x2e004104f223c1f6U, 0xfdcd00d3f514f8U,
  0x1700e5f0f3dac6faU, 0xf8da00fef9f8a0U, 0x30021e707d20d06U, 0x46d00e9ed1dc7U,
  0x4c0037e5e9ff07faU, 0xb2400c30b3cfeU, 0x4b003907ee08e2f0U, 0xaf000d7eb3ef2U,
  0x3e00fb08eff3c7f0U, 0xfb0500ab0618acU, 0xc000000000000396U, 0xffffe822ffffd40cU,
  0xffffdb4bffffea8fU, 0xe70ffffbe68U, 0xfffff7efc0000000U, 0xffffcecdfffff4afU,
  0xffffe07cffffff3cU, 0xc0000000ffffe649U, 0xfffff060ffffede7U, 0xfffffbcbffffe7e8U,
  0xffffeac8ffffc0c6U, 0xffffe2e90000077eU, 0xffffa7d3ffffcd39U, 0xfffff042fffff595U,
  0xffffd211ffffc5e9U, 0xffffc4cafffffcf2U, 0x30efe3509ec00e0U, 0xdde8e6f208dd00U,
  0xff0a35ff05f8febfU, 0x30706030efef1f9U, 0x41eeb4ae9a300f7U, 0xe5bd051bffb600U,
  0xb0c27fb13ed30d7U, 0x3c152ff70cf9f311U, 0xb14d246ec990005U, 0x1dc60817f9af00U,
  0x22072af111e82ae9U, 0x2b011214110d0223U, 0xff12ea26f2ab000dU, 0x5f00a1006be00U,
  0x3a07110e15e8230aU, 0x2bdce4eff91eff1cU, 0x161e030600a2000dU, 0xee041f1205dd00U,
  0x2f04070615ec2012U, 0xf8e1fc24f730122bU, 0xb05ff12e1ed00dcU, 0xf0dbeff5e8f500U,
  0xf81e21ebfffaecc0U, 0xcf6e0f614e9dd14U, 0xfb2dfb0cd8d100f4U, 0xf8be0804f4fd00U,
  0xa2e33fe301413ddU, 0x3e0204d80be0d91dU, 0xa21be3507ca00d6U, 0x15bede0214f900U,
  0xf83d06f7020e23ebU, 0x2feeeef8fbdbfc2eU, 0xee2dd02bfcae000eU, 0xe3eac9111b0b00U,
  0xf11f314ed01ee21U, 0xf8cce9ed12fbee5dU, 0xe126e50ef38100efU, 0xc70a101f030400U,
  0xfb03e33c240cd9faU, 0xd6af0ad60a2de42fU, 0xf4000d05b71000e1U, 0x4d6f4fedbef00U,
  0x6190006eb10c4d6U, 0x1204e2f80ef7e61fU, 0xc18fa13e81700ffU, 0xf1bcede71d1500U,
  0x1a22dc0c1119dbd7U, 0x5e6de1efef7091fU, 0x26f3e227fef200ffU, 0xfed7e2eb2c2100U,
  0x1023d504dd18d3edU, 0xcf2d413f4f4042cU, 0xefdae0f30dd500ddU, 0xf3f3e610020c00U,
  0x2e12c327f527e306U, 0xf7e7e7fc29f2da02U, 0xc419dfe1ebbe00c6U, 0xe00adb0ed53d00U,
  0x2327cc282145ddf5U, 0xe3baf4db0944e02dU, 0xe5e80b0cd81300f0U, 0xdce1ea01e7f500U,
  0xf61011fcf810b9dbU, 0x100be7002701e220U, 0x15ed0f21071700f9U, 0xeec90cf6fa0b00U,
  0x20240bfae30dd8d9U, 0xe8eeed2102f5f217U, 0x2fd8f8fa1de200ebU, 0xcdaf1fc0d1900U,
  0x3921c30de811f9e0U, 0xdddac00d0ad6fef3U, 0x1ce8e1f723e500ccU, 0xf10fdc030a0900U,
  0xc29c708ef20ecd8U, 0x11cfd40c16f301f3U, 0x1bf5ebe4fec900bdU, 0xbf0bb100de3f00U,
  0xea2ad6141554d2d1U, 0xefa6dede01f7f308U, 0xfbe8f301232500ffU, 0xd90ae1ffd00700U,
  0xf0240c08effbc6f0U, 0x905031036e5f513U, 0x2ce8ed0e1af900e2U, 0xdbddcdfeeb0700U,
  0x635f907f209e0d9U, 0xdffcd9144de2f203U, 0x13daf6f72df200a8U, 0xccf4c40c052100U,
  0xfa44da05e917eae7U, 0xf8eae00a29e0fcd8U, 0xfedbe3e316c100a0U, 0xc40ebe05fe2c00U,
  0xfc24ddf3f327d9e1U, 0x1cdcf5ff12dce8dfU, 0xe5fbedea02db00c1U, 0xb6f5bff8004100U,
  0xec2ce4ee0703e9d2U, 0xdfc8f1e502e3d7eaU, 0x0U, 0x0U,
  0x0U, 0x0U, 0x0U, 0x0U,
  0x0U, 0x0U, 0x0U, 0x0U,
  0x0U, 0x0U, 0x0U, 0x0U,
  0x0U, 0x0U, 0x0U, 0x0U,
  0x0U, 0x0U, 0x0U, 0x0U,
  0x0U, 0x0U, 0x0U, 0x0U,
  0x0U, 0x0U, 0x0U, 0x0U,
  0x0U, 0x0U, 0x0U, 0x0U,
  0x0U, 0x0U, 0x0U, 0x0U,
  0x0U, 0x0U, 0x0U, 0x0U,
  0x0U, 0x0U, 0x0U, 0x0U,
  0x0U, 0x0U, 0x0U, 0x0U,
  0x0U, 0x0U, 0x0U, 0x0U,
  0x0U, 0x0U, 0x0U, 0x0U,
  0x0U, 0x0U, 0x0U, 0x0U,
  0x0U, 0x0U, 0x0U, 0x0U,
  0x0U, 0x0U, 0x0U, 0x0U,
  0x0U, 0x0U, 0x0U, 0x0U,
  0x0U, 0x0U, 0x0U, 0x0U,
  0x0U, 0x0U, 0x0U, 0x0U,
  0x0U, 0x0U, 0x0U, 0x0U,
  0x0U, 0x0U, 0x0U, 0x0U,
  0x0U, 0x0U, 0x0U, 0x0U,
  0x0U, 0x0U, 0x0U, 0x0U,
  0x0U, 0x0U, 0x14f20af625110014U, 0x3a052905030700U,
  0x50440040b1e2311U, 0x202907031909f0e3U, 0xcdf02f82103000fU, 0x31ff36fceaf800U,
  0x17243bdf2cfc262bU, 0x444efe000822fadaU, 0x18e4f5c905e800f8U, 0xe800260ff4e800U,
  0x8014be171df1307U, 0x4155e3040a3921efU, 0xf3eaf2c302fa00deU, 0xc5f44125fafa00U,
  0x1dfb12fc59dcd1f3U, 0x1143f825f44123edU, 0xf32afbf7fef400daU, 0xe5ff21fa14f700U,
  0x262f0c052bdfc2daU, 0xe818e526065a3403U, 0x23ff0eef1b160022U, 0x39f518081e0c00U,
  0xf00f34e1272c151cU, 0x313404080924f103U, 0x1ee818e8341300ffU, 0xcf12602080d00U,
  0xfb124ac73e0be944U, 0x93cf40f0e350219U, 0xf71913e90c1a00bdU, 0xd5f51a2b0bfa00U,
  0xeefe13e35d00cc2fU, 0xf3530b1a06122513U, 0xd42ff7fee11300a4U, 0xca03e809060800U,
  0x30ed81b44d8adeaU, 0xf72eed1f06fc6424U, 0xe01305f5f91c00cfU, 0xdfeec5ed15f000U,
  0xe4300c131efc81dcU, 0x726f72f1ee82e02U, 0x2ff317fb0e2300f0U, 0xfb03ff10251a00U,
  0xe2fd47db1a15de0dU, 0x1535d81c0b41051eU, 0x2bf80e01111600ebU, 0xdf0703161a0600U,
  0xf0e52fd4300dda18U, 0xd43df429170b0309U, 0x8f60e22f60a00baU, 0xda0a0536e6e600U,
  0x1ff2fafcff0dda01U, 0xfd28e9480c044209U, 0xfbefebfeee0f00b2U, 0x9e92df6ddf600U,
  0x2810eb05e319beb7U, 0xbd8d54722e2572fU, 0x9d712f2041700f2U, 0x1bf6001ae4d800U,
  0xa07f7f2bf37b3d5U, 0x39e0e845238c3008U, 0x2edb23f10c2300e5U, 0xf1081205fa0500U,
  0xf6f933e3f915c9f4U, 0xf535d5250d5af02eU, 0x21fd1511051600ecU, 0xeae41c30ea0300U,
  0xcfb16bcea03e5d2U, 0xdf30e71a0a1d091eU, 0xe8defc0fce0500efU, 0x6cf2b1fc4f100U,
  0xe08fbdfb3e3d6e8U, 0xcefdefb1beb2321U, 0xdf408eaf0f300e0U, 0x2df2c1d0fff00U,
  0x232016f6b80fe1daU, 0x32e5d82517ea1dfdU, 0x51d903df29fc0016U, 0xf813ef0233fe00U,
  0xfa0e08ebc725ecf9U, 0x72dff3fb109ffaeaU, 0xe9fdef03f61000f7U, 0xe01102fbcff600U,
  0x250bff06f005e106U, 0xee1fe9191348f22dU, 0xf9f4dafae41a00e5U, 0xc7ea241801f700U,
  0x2a1d04d9e2efe7d9U, 0xe331df232721fd26U, 0x6c2bd05ddf400f0U, 0xf1e51820291900U,
  0x25ff12d9aff4f4e9U, 0xe822dcf11aeff0eaU, 0xfd3d5eee0df00fbU, 0xe6281117362600U,
  0xfc180ff9f421f509U, 0x922e8f8f6d2ededU, 0x21e7eded3309001eU, 0xe317e70f341200U,
  0xee0906f4ebfdfc14U, 0x16f2fef7f9bad8e8U, 0xf6f00404f70700d7U, 0x21d4ff07ca1700U,
  0xfe1337e003fde9dfU, 0x1410e2fd31d8151eU, 0xf8c420ea192f00b7U, 0x3cd1fd06b00a00U,
  0xd00454fced1d14b2U, 0x32330e0850b70405U, 0x189c1ee1302800e2U, 0x20c60811b3ce00U,
  0xc51e1d16d22206ceU, 0x353a0c0133940109U, 0x26cafd123dfa0026U, 0x2801fdecc4e400U,
  0xc9ef1c08c0221ce5U, 0x1ef7f4f722a4f405U, 0x2ee3fcf739f20013U, 0x271dd4e80ee300U,
  0xeae8fb03eb280507U, 0xde72c180cafe3fcU, 0xfddf310af05300dcU, 0x13c2f206101100U,
  0xea052cee2601d3e0U, 0x264eecff0fed0a00U, 0x6de4b02e45f00b5U, 0x1cb7c90e01ed00U,
  0xab1d2200170deee9U, 0x3846e60724ca10e7U, 0x1dcf3cf0100300e3U, 0x10ddcf12b8d100U,
  0x8d181521dcfff0f5U, 0x3c220a00448101e6U, 0x1b0821bf37080016U, 0x11fde40ec5e500U,
  0xb7e24900e21207f2U, 0x2a2b37082b96e1d9U, 0x34de1bfb3223000fU, 0x2607d00ce20400U,
  0xe3e221dfd23112ddU, 0x2f18fdef01a2e4f1U, 0x1702090adc2100eaU, 0xf9e4da152fff00U,
  0xc50908d647f8e801U, 0x12f061f051be2feU, 0x5e10cf8e30100dbU, 0x6e7db030ee100U,
  0xdff918c60be8eeeeU, 0xfb1af523211f0003U, 0x4cc0d0100f200f2U, 0x12f4de02fdce00U,
  0xbfea2fd4d800f1dcU, 0x1d1401ec32f4e80bU, 0x10f510f3121300f8U, 0xff0ced10f3db00U,
  0xcacb2aefdefc0224U, 0xfe2a07f2f9f612f5U, 0x4eef38ec211000e5U, 0xf714dafed4e100U,
  0xe5c913dde2fc1f04U, 0x230720e1e8b70cd5U, 0xf6eb1310110400faU, 0x3eceb0bf20500U,
  0xdc0215004611f700U, 0x1b1f0bf6ff17fb0bU, 0xd0fd10ef0612000bU, 0x2070e13e0e600U,
  0x50215ed10ff04edU, 0xa0f06f811290f13U, 0xcbfff62503230008U, 0xfb08f009fff600U,
  0xefa07e4ed100f17U, 0xf30911da1620123cU, 0xf2210f3f9080013U, 0xdf10e5f5e60500U,
  0xeacc040bfb0c040bU, 0xf7e20be71206fe1bU, 0x39f321e01bfe000dU, 0xbef2e8eee3dd00U,
  0xd8c0f6fdfbe50a00U, 0x9f316f5e60dd5f8U, 0xdd0f170044f200f1U, 0xffe8ef05130400U,
  0xedc713ff1a1af3f0U, 0x15fb00e4f520f0fbU, 0xc4fe1a1c30d8001cU, 0xe8fdde0d2af900U,
  0xe4f829f7fcecfb08U, 0x28ef19d2f920e12aU, 0xe80c111224d30003U, 0xe327f60edefe00U,
  0xf10c1e10ece52231U, 0x1ef316e31e25cd30U, 0xf62918fb1eef00fdU, 0xe6efec0ad82d00U,
  0xdaf5051afc080735U, 0x1bdc18f50e04dc0cU, 0xdb0a05fd2af3000dU, 0xe2c5dd07e40700U,
  0xdcee031512e1f53dU, 0xe9e60ce8ed05bce4U, 0x0U, 0x0U,
  0x0U, 0x0U, 0x0U, 0x0U,
  0x0U, 0x0U, 0x0U, 0x0U,
  0x0U, 0x0U, 0x0U, 0x0U,
  0x0U, 0x0U, 0x0U, 0x0U,
  0x0U, 0x0U, 0x0U, 0x0U,
  0x0U, 0x0U, 0x0U, 0x0U,
  0x0U, 0x0U, 0x0U, 0x0U,
  0x0U, 0x0U, 0x0U, 0x0U,
  0x0U, 0x0U, 0x0U, 0x0U,
  0x0U, 0x0U, 0x0U, 0x0U,
  0x0U, 0x0U, 0x0U, 0x0U,
  0x0U, 0x0U, 0x0U, 0x0U,
  0x0U, 0x0U, 0x0U, 0x0U,
  0x0U, 0x0U, 0x0U, 0x0U,
  0x0U, 0x0U, 0x0U, 0x0U,
  0x0U, 0x0U, 0x0U, 0x0U,
  0x0U, 0x0U, 0x0U, 0x0U,
  0x0U, 0x0U, 0x0U, 0x0U,
  0x0U, 0x0U, 0x0U, 0x0U,
  0x0U, 0x0U, 0x0U, 0x0U,
  0x0U, 0x0U, 0x0U, 0x0U,
  0x0U, 0x0U, 0x0U, 0x0U,
  0x0U, 0x0U, 0x0U, 0x0U,
  0x0U, 0x0U, 0x0U, 0x0U,
  0x0U, 0x0U, 0xf8e705ef0cff00e5U, 0xe7c6ea05fdea00U,
  0xfc0c16d608f8deeeU, 0x71cfb0501d803c8U, 0x12cf16f1fc0600e8U, 0x4d7d2f91dcd00U,
  0xd4453ed50b04f7faU, 0x3222fc1ae5cf1bceU, 0x21be17eb0bf800efU, 0xa00e5da0da900U,
  0xa65d31dfdf2ef4f5U, 0x5013ef240dc232daU, 0x32bf0de2e6040003U, 0x1a0e21ef0ecb00U,
  0xbd4a19fdf546dee3U, 0x29ee011612bc1cdbU, 0x3fcafdebdcf40025U, 0x2b051afffec700U,
  0xfb331307d42ddcd7U, 0x20d4ef14f9c333deU, 0xfffc14d3020300feU, 0xbf5d4fb4dda00U,
  0xc5120ce12beee612U, 0xfb15270be9e7fcaeU, 0xccf08ef0c0000faU, 0x1802dee62ece00U,
  0xd66a43ea15fbf717U, 0x18161322e9f411bbU, 0x4b5eff423fc00ecU, 0x61f00d403d800U,
  0xc06622edf6e7e3f5U, 0x230bfc2f14c43abbU, 0xffc80ae7110f0009U, 0x4351ffc1b0100U,
  0xb74938ef02e1c6f2U, 0x915f50c26e917d6U, 0x50d30ef9d70c0002U, 0xb0634f3170200U,
  0xc460c00a9e80efeU, 0x26e2ed1917ea1fe1U, 0x1613e4dbfe1c00e9U, 0x530cef919e000U,
  0xa11efeca32f82d23U, 0x6014b1ddaff1fc1U, 0x2cd8e6eb121900f2U, 0xc1eda050af500U,
  0x8b4919d632000522U, 0xde1d0c2ef0e22cc0U, 0x22dbfe0c1bf9000dU, 0x1634ffff2af100U,
  0x8d141fd917ebf30eU, 0xe8290416241a15d2U, 0xfdfd34e0ee1000f8U, 0x1128231624e000U,
  0xe50c24121ff3f003U, 0xff261a28151b220aU, 0x4cca08fec8120007U, 0x110561fc29ee00U,
  0x3b34f338c2ec0ed4U, 0x34d9fd24300b271aU, 0x131ee7e7130300d4U, 0x642f602f2f800U,
  0xd8f4f20f23142201U, 0xe6093a23e33ee8e9U, 0x2e0513e911030004U, 0x293fda03d0f900U,
  0xb00d1f1c1d281721U, 0xd2283b5a01f60700U, 0x22250bfef4120006U, 0x16150320c2e400U,
  0xf1e1f0133c240116U, 0xba032e2ef8211f30U, 0x350ded4be2200f4U, 0xffdc3506c5f700U,
  0x316f3f81e1c0909U, 0xe5d5201f212c3132U, 0x2902d31abe080025U, 0xeddf69eb340a00U,
  0x253ad429c8e916cbU, 0x3a8221133162444U, 0xecf1d7fe1dfc0092U, 0x1f44fb15effa00U,
  0x4e2eb21fd28e2f8U, 0xb5f7e8fbf04dcb06U, 0xfa0bcf0727f500e0U, 0x25ff150de700U,
  0xdce0a19183bf306U, 0xcaf6f40ff33bf523U, 0xbd33ff1e0ed500ebU, 0xd5ff36faddca00U,
  0x5eccf9fe151afc09U, 0xabc8e60f0c3a2d1fU, 0xb14bf010c0dd00d4U, 0xefcd72f1dd2700U,
  0x46140df3f2e906f5U, 0xf4ca12fa160f1427U, 0xd7ed0623d6110011U, 0xd6fe7f09411700U,
  0x5e00eef7c9c7f9f7U, 0xe8faecfeef172cU, 0xecf40bdb080a000fU, 0xe4e52212f9ff00U,
  0xff2024160aec1d2cU, 0xb40f9fb1912d9edU, 0xd9ece91403080047U, 0xb200123c130300U,
  0x1236210424c80e36U, 0xe84ef0022c33e7ceU, 0xdb02f215e705001eU, 0x810d02383ef800U,
  0x426231245b1dc24U, 0xd557d713171d0bc2U, 0xc620fa02f1170004U, 0xa5f8e70e2bf700U,
  0x931120d4accbf0dU, 0xf04de216f91e0cebU, 0xd620f3fb150800e1U, 0xc901cef5fa1600U,
  0xf728fdff43faa0e0U, 0xee21be2a120e1aeeU, 0x5dbfb07f0250002U, 0xe2d9271efffc00U,
  0xf81633ef39e8e0faU, 0xfe4ecd060a28e107U, 0x13edf525d811001cU, 0xd723f21736f900U,
  0xb0f03df2af1cc35U, 0xa21bb2ff0e300e01U, 0xa17f51ec1e400f2U, 0xc12af6fc4fe400U,
  0xfa23dd0b31feaf29U, 0xde00cd0eca10480fU, 0x44f0204d7f600d4U, 0xabfc0acd13f900U,
  0xfb1ecc163402a7e8U, 0x6c9c31cfef6522cU, 0xf915f2041c0a00f7U, 0xd2f9d8e1f4f500U,
  0xa1dd8011f0d9bbbU, 0xf4e0d50b03d04814U, 0x27e60a04be0d00f8U, 0x1bdb06200dfb00U,
  0xf0f53de21f03d508U, 0xe649ea2b09451b2eU, 0x2ae00515c42600dfU, 0xde71c2708f800U,
  0x2dec06daf40fd62cU, 0xd923cb1a1a142b22U, 0x1ef3e625eacf00eaU, 0xe4ed1111e40e00U,
  0x36e7dbdeef13c1e9U, 0x31b1bb15fad0512bU, 0xfe10dc04f8fb00f9U, 0xd4ff2b03000200U,
  0x1609f4fba32ab3c5U, 0x55a9bfed11d8432bU, 0xfffb0bf7f9040036U, 0xe7f53b0f01b100U,
  0x2909dcefc814ec19U, 0x2ec1e2fd04da1602U, 0x26cc13f1c61800feU, 0xcda14061bfa00U,
  0x10ef17eb0afceef9U, 0xd119ec311749292fU, 0x1eec0122e0f800daU, 0x20e3123c0b0c00U,
  0x260000d51cf2ddfbU, 0xe534f02628df1eeeU, 0x4fbf20a0ae600f4U, 0xf20040e73100U,
  0x1c12fbeb21edcf07U, 0x2717e42004bce2feU, 0xf5ffd3d7d413000fU, 0xec000a23061500U,
  0xf07d8fbd419e105U, 0x16f2d9260ecfd417U, 0xde4eec8e3ff003dU, 0xfe0246fe2ddf00U,
  0x16fde2f9e118e716U, 0x2acae5f2fbe6f3faU, 0xfaf6fd00e50a0003U, 0xf1f21507e8f400U,
  0x29040ff6f6eef7ffU, 0xfd12f8121b1d030dU, 0x13c9f209ea0c00f5U, 0xe4091c22210100U,
  0x1df20af7f1dbfbf1U, 0xee36e51509eaf5ddU, 0xde8e0fbe0ff00faU, 0x81f0c201e2700U,
  0xfe4f8edf704eb07U, 0x2029f3f9e3b3dad5U, 0x4f1c7ecd6f9001eU, 0xe83b15e222f600U,
  0xefeef2fdeb3ceed8U, 0x39fbfe39f0b5dbecU, 0x27e4e0e1070f0022U, 0xf5131cec33c100U,
  0xf6f3f405b81004e1U, 0x1bea0e29e7dae6e5U, 0x191bfe1013cb002dU, 0xd40524f918e000U,
  0x620faf9080e16d9U, 0xbdb16fe020b000dU, 0x15f2e02c09c20050U, 0xfbf944dd142100U,
  0x1b1d0907f6f4f226U, 0x6d6eee6141ade1cU, 0x902d601ecd80038U, 0x200aedfa1a5300U,
  0x1d0c231909d8fb35U, 0xebd8e9f80523d214U, 0xe39fb1203cf00ffU, 0xed1ac0f2ff4500U,
  0x2200fcfd0fe53114U, 0xdfe40ee5ea1bd825U, 0x1a3e07ed30de00e8U, 0xd110a0f5091b00U,
  0xecc6f5e729f3fa0bU, 0xf91b04e7faf026U, 0xec1bd9002ad80034U, 0x141a2aff06ff00U,
  0x18fcdc050a153003U, 0xfc929ec0520dd0bU, 0xf013bd151ed6003cU, 0x86a05e2204800U,
  0x102d80af0011e0fU, 0xe79c0bce0a05bb60U, 0x937c6fe06f0001eU, 0x138feb7206300U,
  0x222ca0b0d192907U, 0xb9bffdfd18efe13aU, 0x824e9e73006000eU, 0x2312c9c1f62800U,
  0x2101aeee0438ee08U, 0xcfbf02180610d527U, 0x42d08f67208002dU, 0x340096dfd3e200U,
  0xd6abe1f1041de646U, 0xeded2119fae9db14U, 0xd6f9e4123ece000fU, 0x1732120aa8f500U,
  0x25f2f726f12c57dfU, 0xe9941bf0db09de21U, 0xe00dd827f3f90011U, 0xc47f9c60c2e00U,
  0x1c00cd32cc393eefU, 0xe496fdf72218ef39U, 0xec390205fbfa0010U, 0x18d8dbc2ed2f00U,
  0x2352aa14e8580d02U, 0xe2f5f602ff0a0b2dU, 0xfef113ef0e0100fbU, 0x3fc3a5e5e4e400U,
  0xeb0dee17c0270307U, 0xe60f472dfdc8fe03U, 0x20e601264f1a002bU, 0x3ef9aa05e1b000U,
  0xdab805e2e808ed40U, 0x100a553cde94d5faU, 0x2f414240fd40004U, 0x1e16f9fadfe100U,
  0x4dc19fcb2093ad0U, 0x4ccf0f10fdbcffdU, 0xe5ec0436dcfb000bU, 0x3ef101d1050100U,
  0x2b0bd7f2a42408e0U, 0xdc6e4f60ae2e707U, 0x19021e53da130028U, 0xfd3dfcbe30a00U,
  0x1549c6ee90091dedU, 0x2aeaf02303d6f10bU, 0x2ee42943f609001dU, 0x902ef22e6e200U,
  0xfe1229ee89f4381aU, 0x1eff152b01a0e1efU, 0x33cc092d1d220044U, 0x2209bc3ef3e400U,
  0xedf0909c2f33451U, 0x250421fbdc81afdfU, 0xe5eb2e2529f40002U, 0x160006fe09f000U,
  0xf7162af7cbd9e5e5U, 0x1d00eee22fd4d510U, 0xfccb1b24fa110001U, 0xaf4def8090600U,
  0x124c3ecd8fe8e8f2U, 0x1bf3f7df25b4c608U, 0x9cbff172d35002eU, 0xf608e703101800U,
  0xea4a1cea9fe8e9fbU, 0x171cfa203a91d8d3U, 0x28cae81b41370036U, 0x234ba23f4fc00U,
  0xf01bfafed706141aU, 0x1226151f0a98e4f2U, 0x23eaf3fa2c230037U, 0x7ebc616ffd400U,
  0xcfe6f609f8ea1107U, 0xf5f90e0af3a4f4e8U, 0x0U, 0x0U,
  0x0U, 0x0U, 0x0U, 0x0U,
  0x0U, 0x0U, 0x0U, 0x0U,
  0x0U, 0x0U, 0x0U, 0x0U,
  0x0U, 0x0U, 0x0U, 0x0U,
  0x0U, 0x0U, 0x0U, 0x0U,
  0x0U, 0x0U, 0x0U, 0x0U,
  0x0U, 0x0U, 0x0U, 0x0U,
  0x0U, 0x0U, 0x0U, 0x0U,
  0x0U, 0x0U, 0x0U, 0x0U,
  0x0U, 0x0U, 0x0U, 0x0U,
  0x0U, 0x0U, 0x0U, 0x0U,
  0x0U, 0x0U, 0x0U, 0x0U,
  0x0U, 0x0U, 0x0U, 0x0U,
  0x0U, 0x0U, 0x0U, 0x0U,
  0x0U, 0x0U, 0x0U, 0x0U,
  0x0U, 0x0U, 0x0U, 0x0U,
  0x0U, 0x0U, 0x0U, 0x0U,
  0x0U, 0x0U, 0x0U, 0x0U,
  0x0U, 0x0U, 0x0U, 0x0U,
  0x0U, 0x0U, 0x0U, 0x0U,
  0x0U, 0x0U, 0x0U, 0x0U,
  0x0U, 0x0U, 0x0U, 0x0U,
  0x0U, 0x0U, 0x0U, 0x0U,
  0x0U, 0x0U, 0x0U, 0x0U,
  0x0U, 0x0U, 0x0U, 0x0U,
  0x0U, 0x0U, 0x0U, 0x0U,
  0x0U, 0x0U, 0x0U, 0x0U,
  0x0U, 0x0U, 0x0U, 0x0U,
  0x0U, 0x0U, 0x0U, 0x0U,
  0x0U, 0x0U, 0x0U, 0x0U,
  0x0U, 0x0U, 0x0U, 0x0U,
  0x0U, 0x0U, 0x0U, 0x0U,
  0x0U, 0x0U, 0x0U, 0x0U,
  0x0U, 0x0U, 0x0U, 0x0U,
  0x0U, 0x0U, 0x0U, 0x0U,
  0x0U, 0x0U, 0x0U, 0x0U,
  0x0U, 0x0U, 0x0U, 0x0U,
  0x0U, 0x0U, 0x0U, 0x0U,
  0x0U, 0x0U, 0x0U, 0x0U,
  0x0U, 0x0U, 0x0U, 0x0U,
  0x0U, 0x0U, 0x0U, 0x0U,
  0x0U, 0x0U, 0x0U, 0x0U,
  0x0U, 0x0U, 0x0U, 0x0U,
  0x0U, 0x0U, 0x0U, 0x0U,
  0x0U, 0x0U, 0x0U, 0x0U,
  0x0U, 0x0U, 0x0U, 0x0U,
  0x0U, 0x0U, 0x0U, 0x0U,
  0x0U, 0x0U, 0x0U, 0x0U,
  0x0U, 0x0U, 0x0U, 0x0U,
  0x0U, 0x0U, 0x0U, 0x0U,
  0x0U, 0x0U, 0x0U, 0x0U,
  0x0U, 0x0U, 0x0U, 0x0U,
  0x0U, 0x0U, 0x0U, 0x0U,
  0x0U, 0x0U, 0x0U, 0x0U,
  0x0U, 0x0U, 0x0U, 0x0U,
  0x0U, 0x0U, 0x0U, 0x0U,
  0x0U, 0x0U, 0x0U, 0x0U,
  0x0U, 0x0U, 0x0U, 0x0U,
  0x0U, 0x0U, 0x0U, 0x0U,
  0x0U, 0x0U, 0x0U, 0x0U,
  0x0U, 0x0U, 0x0U, 0x0U,
  0x0U, 0x0U, 0x0U, 0x0U,
  0x0U, 0x0U, 0x0U, 0x0U,
  0x0U, 0x0U, 0x0U, 0x0U,
  0x0U, 0x0U, 0x0U, 0x0U,
  0x0U, 0x0U, 0x0U, 0x0U,
  0x0U, 0x0U, 0x0U, 0x0U,
  0x0U, 0x0U, 0x0U, 0x0U,
  0x0U, 0x0U, 0x0U, 0x0U,
  0x0U, 0x0U, 0x0U, 0x0U,
  0x0U, 0x0U, 0x0U, 0x0U,
  0x0U, 0x0U, 0x0U, 0x0U,
  0x0U, 0x0U, 0x0U, 0x0U,
  0x0U, 0x0U, 0x0U, 0x0U,
  0x0U, 0x0U, 0xaf110df191c00f8U, 0xbfeff101a0700U,
  0x51842fc13eafe1dU, 0x19400ffb1c0cd8ceU, 0x22cf10d11317000aU, 0x27262630110900U,
  0xf9232ad447ef242cU, 0x443703130a0801dbU, 0xadfffd605210005U, 0x102a0a12291500U,
  0xff14fe15dbd2409U, 0x1228e7fd222d1bcdU, 0xe8f4eecd08ff00f9U, 0xde190d17281a00U,
  0x1619490146d63116U, 0xfa6ee71af92506e2U, 0xfa2cecddf2e600faU, 0xd60220f41b0000U,
  0x2515211734e008caU, 0x232e207042f10f3U, 0x1eeeffe9f83900eaU, 0x301fbfb460700U,
  0xde2733d42a0d10dfU, 0x1444f1110a0ded02U, 0x24e517fd1d4800edU, 0xe32dff3f4c0000U,
  0xa70354d07112cafcU, 0xeb4fd51b13174a02U, 0xf70e1c082d3300d2U, 0xe93a0a0a4cfc00U,
  0xc7e856da7ff0b6feU, 0xe365e90cf7155011U, 0xe23e0b1845df00b2U, 0xd42aff0530ed00U,
  0xe802470949dbe2eaU, 0xa65e636ece746f4U, 0xe95de9151f0700dcU, 0xc3ffc1e119d100U,
  0xd622ff2624ec98e5U, 0x941f54103e345e1U, 0x16fd240f1bf900c6U, 0x1429fb0b23f700U,
  0xe9e741e1241cfcd3U, 0xee0dd10aee6dd024U, 0x1e0827f3f21800c4U, 0x5f51e15e7d100U,
  0xfac330ad37f8f4ccU, 0x1024d2230a290438U, 0x1707fa11d51b00bfU, 0xeffc2fc6d5c400U,
  0x2ecc03d3d5f9f4c6U, 0x1a11f2450823252cU, 0xf84ade51d3f100aeU, 0x22d92ee6bbba00U,
  0x20fff4f20d0a0b85U, 0x30b1043cf0205046U, 0x5021c53ed1a00bbU, 0x1e09251ee99200U,
  0x200801e9df23cfbaU, 0x35c8f93df7842620U, 0xc847f71ccf00e6U, 0x12102108e6db00U,
  0x14d534d5d81bc8e0U, 0xf821e8fa02709c2fU, 0xfff82f0d03b80019U, 0x16ca461eccdc00U,
  0x24e115b2c60ec1caU, 0xdc14dcfb3f309e36U, 0xddfedb20b6ec003bU, 0xffbb551cc91400U,
  0x3b0241d2a2e9d3edU, 0x13e5d3f125079d43U, 0x1b12e605d0f9001aU, 0xed15129f30d00U,
  0x560c5225aad9e8e8U, 0x3502dce503fcfa27U, 0x66c207ffeffc002bU, 0x302241824cc00U,
  0x59eb2cf5b1ee02d4U, 0x77d1f0e9f699e402U, 0xe0cefaf906d6000eU, 0xf2f7e6fee5d500U,
  0xfdff10ebf7e8eaf9U, 0xf4fb09fb28f9c4f6U, 0x3b9cbef91ae000fcU, 0xc80ef13037f100U,
  0xf31849d1bdf7ecfdU, 0xf119d6fc55d2c1ecU, 0x32a1ad1125ce0011U, 0xea101827333300U,
  0xe23030d4aa080906U, 0xdf32ce0a35a1ceeaU, 0x29d5e8ff0abc0013U, 0xdb231f192d4000U,
  0x1b3413fab810f310U, 0x2026e30e10b7c6e9U, 0x1bd4f3eb41fd0022U, 0xdf1f030336ee00U,
  0x5f21001c0e1f813U, 0x32e1f8fb03a8d6ddU, 0x9f8fff0040900fdU, 0x412a23ff0ce300U,
  0xfccf0f21040538f6U, 0xfde90e010b2de207U, 0xfeffe00effe40033U, 0xb1e5508f9e800U,
  0x24f30a1221ee272eU, 0xe4da38fb0d49ddf3U, 0xe30ec309f9e3002dU, 0xbc193b14052a00U,
  0x4be70a0548b9fd34U, 0xc902fcfff467dcf4U, 0xb74de0fafdfe00f6U, 0x9e06f70d2e4800U,
  0x3a13e51636bbce0dU, 0xa411e416d55edcfdU, 0xae3eef05ee0500c7U, 0xc106daf50c3c00U,
  0x1c12f01441cbb6ffU, 0xd826d8050b68060fU, 0xfdf2e4dd15000005U, 0x2009320a02ee00U,
  0x9c227211d151d04U, 0x10d80ef52d29e019U, 0x511f0fb0f140002U, 0xe307310d270600U,
  0x2ef516094c03fe37U, 0xf4eef0df1a3c020aU, 0xf026ea0de30d00f3U, 0xcc01f5eb24ff00U,
  0x3cf6131a4befdd23U, 0xc31bebedef2118fcU, 0xd1682202c5d500e6U, 0xb2f7d9e3151400U,
  0x162de22e57e8e00cU, 0xc041d900d323171cU, 0xa82704f2fbdb00ebU, 0xaee4afd6ed1500U,
  0xf411d6154eff8102U, 0xc409d51b12080815U, 0x11fe19da102100f0U, 0x11f71101241100U,
  0xf3ce2bf7370def08U, 0x1a1ed7fd1f4d030bU, 0xe2ae61bf32f00daU, 0xe810160c581100U,
  0x35cfe8fc43f6d70cU, 0xcd02fc1c0d380513U, 0x4030504cff000d1U, 0xe134e81c420600U,
  0x3402e304290dd504U, 0xfc12ce2cd9fe2c13U, 0xff04f905dff500d7U, 0xd30411edfd1900U,
  0x939eb0b0b24b1c4U, 0x35c0a80f0d00431cU, 0xb0ed1ce613110001U, 0xd6f309dfcdfa00U,
  0x63ef3f5db33a6e6U, 0x39f3aa20f8f60d0dU, 0x270421e8062400f1U, 0x30fae6eff71a00U,
  0xffe9fed9260707ffU, 0xf7f3f00708530f24U, 0xf419ea00ca1000dbU, 0x100f2023031900U,
  0x1fdbfce40c03eef1U, 0x405fa01f32f2e10U, 0xf20603f2e0e000e2U, 0xfdfa062f070400U,
  0x110bedf733fedbeeU, 0x35f9e405f1031d13U, 0x180804f7010100e9U, 0xd7f9f302ff0e00U,
  0xa15e1241225c8e3U, 0x48e9d10ef4020806U, 0xf4fe03d80021001cU, 0xebe20dedf81700U,
  0xfa12e8f6f621d110U, 0x4103db0ff81105fdU, 0xfa06f90c090d0002U, 0xe10fef7c90000U,
  0x2fd0c05fe06090eU, 0xf9f0fa1a0e48fd1bU, 0xdde8fa08e91500f3U, 0x10f8320de9fd00U,
  0x2718f01d06ff0114U, 0xf7f1e93305451a34U, 0xecec020ce1e100ecU, 0xddb0e02f22700U,
  0x10fdeef80402dfefU, 0x2700f804f7ff150cU, 0xfff3d6f3fcef00fdU, 0xf5f401011f1a00U,
  0x30c01f00f29dae6U, 0x24f6e519e4f1dcffU, 0xf0101dd1200002eU, 0xec0a06fe2afa00U,
  0xf7fe05efd316fc00U, 0x1b0efa3305fad8eeU, 0xfdf1faf1f3f70011U, 0x2130703fa2700U,
  0xfc21f30aef08db23U, 0xe01eefe2601fd0cU, 0xfd0406d806f80002U, 0x91f2406f52c00U,
  0x140ee70cd00ae3d9U, 0x606f4f838f7d60aU, 0xe72106fc0e2700efU, 0xf1d37efe31500U,
  0x37eefe17eb132aaeU, 0x22402072a07f501U, 0xe4e9111c313a00ebU, 0xf12a27e706db00U,
  0x13ee3014d32d1de2U, 0xfb140ae61920ff17U, 0x501170b541000ffU, 0x1a0634fd040800U,
  0xfffc0c1cf42e3dfeU, 0x30718e6e650bb15U, 0xfcbc0cf007040003U, 0xe8ebfd05c83700U,
  0xfe3405f4c40db418U, 0x10f5fc0916d0e01eU, 0xfeb711f5070f00f8U, 0xcf06f613e51c00U,
  0x142207fd8916affaU, 0xf1b02110a8ddc1bU, 0x804fc0d000b00f9U, 0xe3291435ec1100U,
  0x370c2212dc0719f6U, 0xdf371e1309f0ede5U, 0xe3f7170f04f90020U, 0xc2f223bd30300U,
  0x17f32f27e5151848U, 0xd91b1feff72e03e6U, 0xfe1c1b40f5d500ffU, 0xf92a0119043300U,
  0xe4dd5525ef07462eU, 0x91a3ededc29bdeeU, 0xf7c5fa0c17260011U, 0xbbebdf1ff82400U,
  0xfd30e808be0bc12eU, 0xed250004269c14f1U, 0x20dfe90a1d1400d8U, 0xc2df971e2eff00U,
  0xee222327c704ce2dU, 0xbe33221d11812cb7U, 0x271db6e6000300e5U, 0xe31ea24a480500U,
  0xff2a403cf9042721U, 0xd2094ccae9d823adU, 0xfb02e01ff4db0020U, 0xf940fa1f450900U,
  0x29f828f4fae64134U, 0xd50b49cdda20f5dfU, 0xe51f044e13a90024U, 0xf225ea0a2d5400U,
  0xf2df45152bee2efdU, 0xe1305ad0ddfcb1f6U, 0xfe01e2fa08fb000eU, 0xd1ebff041b2000U,
  0xe12fb007d0f5d21fU, 0xeb06020ffac21cdeU, 0xe50ff8e10bfc00b9U, 0xf8e2c3342c1400U,
  0xc7fdaf1ff7e3c93aU, 0xc3ec0200cf922bfaU, 0x7f514c7f41400d5U, 0xed29c10b4c1200U,
  0xdfbeaec0ae6fa5cU, 0xd7fc08eac2f40914U, 0x2b0810fa25d300f3U, 0xca56d3ea59f800U,
  0xc2003d71211180dU, 0xc1f70cfde6d902e3U, 0x32df5173bb400e7U, 0xf726d5ff291700U,
  0xeb170b0d441c17dbU, 0xc8fb03c4e2dbca01U, 0x20e0ddceea13002aU, 0x4ec0af4601e00U,
  0xe319bbfde804fa15U, 0xfbcdf609e4f32e01U, 0x26060cb9ebe2001cU, 0x1a0aeb09241200U,
  0xe9f6a4094641ea1dU, 0xdd21fde6e23a07U, 0x2b31189e09d5000cU, 0xfafcd9e612ec00U,
  0x2e0da7f73f32e60dU, 0x8b83102022222f8U, 0x222814c14bbf00deU, 0xedd4cdcddbe600U,
  0xeb3fd2fe2920ffedU, 0xedaa16081d1012faU, 0x42102f51fcd00c7U, 0xf8d6d6e0f61c00U,
  0xd72aef163d2dfcf1U, 0xe4bb00f2fa2dfe0aU, 0xf70101f6f72000f3U, 0xf6fc0602ece200U,
  0xf4eb0a0101ff0602U, 0xed2e0e091011f3efU, 0x8071518f3060002U, 0xe127d61705e100U,
  0xfaef1b032de7f514U, 0xcb51e2122015e0e3U, 0xec0515341c06000fU, 0xcf0eca1e0dd800U,
  0x5021d1144ea1d1bU, 0xcf35e2f30623cac1U, 0x151922430e1a00f9U, 0xda2ebc3344ee00U,
  0xe30c15193f0a11f1U, 0xfa27f0f8f00ad3c9U, 0x1e291727fcec00e5U, 0xe609d01414d600U,
  0xe8031f074d23fcd5U, 0x123afe110dedded6U, 0x21ec00e0f20e00e4U, 0xf41c04193bd000U,
  0xedcb01f828fcd13bU, 0xca4bf41bed2004c4U, 0x5041d0fd4f900d1U, 0xe513be0a40d700U,
  0xfae32ee430ebb522U, 0xc424ca24fb4ef8dbU, 0xdd131328ee1800d2U, 0xc633d4fe2fea00U,
  0x14f11a001de9e03bU, 0xeb1fcde6de2fecd5U, 0xf33c1d240b0700e9U, 0xd248eee0461000U,
  0x3fc160dfce7e508U, 0xa11fae8d619dbe6U, 0x29300b1b0e0200c9U, 0xe318e80e241400U,
  0xfded12f429071d09U, 0x170517effc00eee6U, 0x30fb25bcedfa00f7U, 0x4000053cd500U,
  0xdfbaf30c0104ed48U, 0xa735393dc53e25caU, 0xfbf910f4cf2700d5U, 0xe324f1f162e300U,
  0xd5ebebfc0d05bf39U, 0xb5380b19f95303e5U, 0xea0a05e706e500e0U, 0xd517e8dd3ffc00U,
  0xfd0dff09e4f9be24U, 0xdc3acedff60409e9U, 0xf4fefd060bf600efU, 0xda240fef110900U,
  0xf0ffd05eee1db00U, 0x17dee8db1314e80eU, 0x34e304f5d82400ddU, 0xf11655f3f40200U,
  0x10fa0518ebe51a11U, 0x37dfe2b9fef8dee3U, 0x6709edae10fc00f5U, 0x75afbd727e900U,
  0x6adcd2fef141430U, 0xab0f5040df2d05e9U, 0x441102d2e11800d8U, 0x33109cd0aeb00U,
  0x2d9dc451d10d934U, 0xb11b5235f53afff2U, 0x290509cefa0c0002U, 0xc120df5120b00U,
  0xfef9fd2e10f8d11fU, 0xb4f823280b151409U, 0xf400ffe9f1fa000eU, 0xfb1700fefe1c00U,
  0xf11de91321ef0e19U, 0xfe0c04ff121af413U, 0x1cfbeb09a7100016U, 0xfe0157f6181a00U,
  0xd04fb28fbe02232U, 0x15f004df0931f2e1U, 0x2209c6d000e900e7U, 0x3836ecf226f800U,
  0x19d5da51e7f22b1cU, 0xd5d23b02cd21eef5U, 0x1603c3ce10ff00f5U, 0x465bf1f21af500U,
  0x24d1f07f23101619U, 0xda08620ceb2de303U, 0xe15ecd616f8002eU, 0x2e3402ff040300U,
  0xabfca664326223cU, 0xb5182f1920261614U, 0xe539fff8e8e30029U, 0x2d2100e4f93100U,
  0xfaedd72f392d1036U, 0xa4ef24fb0c501216U, 0xb511f7f7c9fe0040U, 0x262e26f40e2d00U,
  0x12fbf52f39100658U, 0xb6ed10000b6ef923U, 0x0U, 0x0U,
  0x0U, 0x0U, 0x0U, 0x0U,
  0x0U, 0x0U, 0x0U, 0x0U,
  0x0U, 0x0U, 0x0U, 0x0U,
  0x0U, 0x0U, 0x0U, 0x0U,
  0x0U, 0x0U, 0x0U, 0x0U,
  0x0U, 0x0U, 0x0U, 0x0U,
  0x0U, 0x0U, 0x0U, 0x0U,
  0x0U, 0x0U, 0x0U, 0x0U,
  0x0U, 0x0U, 0x0U, 0x0U,
  0x0U, 0x0U, 0x0U, 0x0U,
  0x0U, 0x0U, 0x0U, 0x0U,
  0x0U, 0x0U, 0x0U, 0x0U,
  0x0U, 0x0U, 0x0U, 0x0U,
  0x0U, 0x0U, 0x0U, 0x0U,
  0x0U, 0x0U, 0x0U, 0x0U,
  0x0U, 0x0U, 0x0U, 0x0U,
  0x0U, 0x0U, 0x0U, 0x0U,
  0x0U, 0x0U, 0x0U, 0x0U,
  0x0U, 0x0U, 0x0U, 0x0U,
  0x0U, 0x0U, 0x0U, 0x0U,
  0x0U, 0x0U, 0x0U, 0x0U,
  0x0U, 0x0U, 0x0U, 0x0U,
  0x0U, 0x0U, 0x0U, 0x0U,
  0x0U, 0x0U, 0x0U, 0x0U,
  0x0U, 0x0U, 0x0U, 0x0U,
  0x0U, 0x0U, 0x0U, 0x0U,
  0x0U, 0x0U, 0x0U, 0x0U,
  0x0U, 0x0U, 0x0U, 0x0U,
  0x0U, 0x0U, 0x0U, 0x0U,
  0x0U, 0x0U, 0x0U, 0x0U,
  0x0U, 0x0U, 0x0U, 0x0U,
  0x0U, 0x0U, 0x0U, 0x0U,
  0x0U, 0x0U, 0x0U, 0x0U,
  0x0U, 0x0U, 0x0U, 0x0U,
  0x0U, 0x0U, 0x0U, 0x0U,
  0x0U, 0x0U, 0x0U, 0x0U,
  0x0U, 0x0U, 0x0U, 0x0U,
  0x0U, 0x0U, 0x0U, 0x0U,
  0x0U, 0x0U, 0x0U, 0x0U,
  0x0U, 0x0U, 0x0U, 0x0U,
  0x0U, 0x0U, 0x0U, 0x0U,
  0x0U, 0x0U, 0x0U, 0x0U,
  0x0U, 0x0U, 0x0U, 0x0U,
  0x0U, 0x0U, 0x0U, 0x0U,
  0x0U, 0x0U, 0x0U, 0x0U,
  0x0U, 0x0U, 0x0U, 0x0U,
  0x0U, 0x0U, 0x0U, 0x0U,
  0x0U, 0x0U, 0x0U, 0x0U,
  0x0U, 0x0U, 0x0U, 0x0U,
  0x0U, 0x0U, 0x1d8052818150001U, 0xe2f9de030b1700U,
  0x629fefbfe0fd40aU, 0xee0d0d0404f6f801U, 0x10d70630070100f5U, 0xf201ea06100a00U,
  0xfc33ef0afe17db00U, 0xfd1f1207f6e514ffU, 0x11f7f8ffe8f6000bU, 0x1f5eee30e1500U,
  0xeb3b1723f806e70fU, 0xfa18de00eff30d0cU, 0xf1efeeff2d0000bU, 0x6ecf8d4f8fa00U,
  0xe32b052301e50d32U, 0xf1f7ec02f5f5fd1eU, 0x26110e060af40020U, 0xf908ddfe2bee00U,
  0xe0ffff09ffe20c0aU, 0xdf70f01ffe3f710U, 0x1cec0d27021f00e8U, 0xe91cc5ef300f00U,
  0xdb1feefee8fbd0f5U, 0xdf19eb0516ede312U, 0x17e80e15f80600e7U, 0xf0d00083d0e00U,
  0xd600ff1dfe0af8feU, 0xf3effbe71c0f0d17U, 0x34100d23e5c300f5U, 0xa13fbbf112900U,
  0xe2302615090df6f1U, 0x20e7e8f015eef929U, 0x1808f8101fb600fbU, 0xf6dae5d0081700U,
  0xfa1efd080d14fdfaU, 0x19cef3df0ad8d43bU, 0x329fc0515a200f7U, 0xec04c3ecfd0600U,
  0xd8fa100e0502f7f7U, 0x1bdd19e805f7ec16U, 0x1bfbdfdb0bf600d8U, 0xc45cbe3fdff00U,
  0xdd0e0008e015f9faU, 0xf5cb0e1e1906df13U, 0x1df5f90304f500deU, 0xf2ff7e02b0b00U,
  0x13e92807f21ffff1U, 0x9cefbfb131ed756U, 0x472c0d18f8f000e8U, 0xfc1ef4da2c3400U,
  0x1d00ebe8172707d6U, 0xf9b919ee2014bf53U, 0x2e3021150dd10000U, 0xe3e9e2be2d2200U,
  0xf17c7fb2513fbd2U, 0xf5b110db2ce3dd68U, 0x150d09fb09a900dbU, 0xe50ff209f80000U,
  0x1f04cb0a0d15e4d0U, 0xef8405ca24fff65fU, 0xf243e6ebfcf000eeU, 0xd33ccdc260300U,
  0xf811f514db1fd8efU, 0x1ca10605e72a051cU, 0xb2711f807ed0007U, 0xe71fafe8321900U,
  0x1f08fbf3c9300708U, 0x12bc03f12841af60U, 0xb3114e204fe00e8U, 0xe1ebc5da2f1500U,
  0x2a21b30cbc1c21d9U, 0xd0bbfcfe323fbf69U, 0xa2f1ad9f7f600f7U, 0xdef2eabf4ff300U,
  0x35299efdc418f9d6U, 0xc39bfd20161df76eU, 0x140017f01af20003U, 0xcdeb05ee20ef00U,
  0x1d0fcb13df19f0cbU, 0xa6f107ead7e02aU, 0x8120d5010ae300e8U, 0x2ffbbf3dcf900U,
  0xeafecbf42d05d1f2U, 0x5b02aeaef4df328U, 0x9de517f516c800cfU, 0xe5e5bdd6c30300U,
  0xf238d6efe10bd0fcU, 0x599deed1952bf2cU, 0xccfe3cf111be00beU, 0xbfbde2c9eeed00U,
  0xde60b9ec9712f1dcU, 0x22b6ee2c28d49314U, 0xe2f433ee33bf00e0U, 0xb3dfd3b202e000U,
  0xec38bd018ff2fc08U, 0x1998013204a2ba05U, 0xdaf210f733e600dfU, 0xb6f1e3e60df600U,
  0xebffee04d1c8fad6U, 0x1ecafd0ff2c1ebf7U, 0x3ee0c10132400eeU, 0xe5dcebff01fe00U,
  0x211a18faece1U, 0x37ef0405090af3U, 0x3ee0712fe0100d3U, 0x25090321eeea00U,
  0xf53215ea2ef9de19U, 0x932ea11f9d50e09U, 0xf90d0212f8df00e3U, 0x10e80908e1ec00U,
  0x82e1cf121d9f40dU, 0x1d12d107e2e42a0bU, 0xd720f5eff0dd00e8U, 0xd9d528e8def400U,
  0x1109281219bde507U, 0x3d1dd00ae3de1319U, 0xd616f0f803e900edU, 0xd6fe0cfded1300U,
  0x1819220128c7c3f8U, 0x81aea1b0d0b3c23U, 0x22e90dfedf3000d6U, 0x4f2e8f01ae800U,
  0xe712fbe93413c5bbU, 0xf414e208151deb2cU, 0x1fe72513de2400d1U, 0xfea81fd93af200U,
  0xef1919db5127a5d1U, 0xf0fdc40630222244U, 0x4351238e2ed00caU, 0xc1bfeaf730fa00U,
  0x16f945f1500abdcbU, 0x31d0012032f2633U, 0xd9561330f3cd00a2U, 0xb4f2ee0f02ee00U,
  0x16f6e81f34e4cfdaU, 0x1708fe18f21b1d39U, 0xa92c0106f5ca00c5U, 0xa300c5f208eb00U,
  0x25e71a0c028fb6U, 0x19f7f91425f73227U, 0x1de107f9db0900dfU, 0xddad6fd0ff000U,
  0x8f11dd92929d5caU, 0xf91fd0142842ea48U, 0x3908edf5d44a00cfU, 0xe0c412e14afd00U,
  0xffae7b90613dfb5U, 0xc81dc5463e3d054fU, 0x3128eb3cb31500b0U, 0xf6e711cf280700U,
  0x4bebb9eae506d4d6U, 0x1a00fa35070b133fU, 0xf0be4ecc9d100abU, 0xdfe93b0bf3ef00U,
  0x20089cfbf226b6beU, 0x38ade6321be21355U, 0xfcf211fafbec00e4U, 0xb4f70afee4eb00U,
  0x2a28bafbee35a8a9U, 0x1db2de0913b80e19U, 0xcd0234defc0d00fdU, 0xe40ada0c0ef300U,
  0xf7d81ff60d0ad8d2U, 0xf407f1f81d4eea3eU, 0xff1623f8061700d8U, 0xfee80c0410ef00U,
  0x27f4e2cbdcfcdbc6U, 0xd012dd020c345019U, 0xfa1700faf50200bcU, 0xf9dc34f8070800U,
  0x4a15c3d6aee9cdcbU, 0xf2eadb0d0bf9372dU, 0x4ff1aee10eb00bcU, 0xcbd30d1c210700U,
  0x1d2de7efcc21bff2U, 0x49d9cd2a09dd0008U, 0x1f0014d230df00e9U, 0xa8ef121c321100U,
  0x2328daefff03cee6U, 0x31d7deebeee0d6deU, 0xa91b0ae531010005U, 0xb9fa05f8e6ee00U,
  0x1fe0e8ebe5cfdbe5U, 0x31e308ef4b47d216U, 0xfec13de23f900cdU, 0xb6f2ed020cd400U,
  0x1af01ecab181fcccU, 0x1c0bdf0047ffffecU, 0x27e716fc091f00b8U, 0xc801ef03181500U,
  0xd40344e2e1c3ebecU, 0x2d5ef2231aa4d9b2U, 0xcdce5f1f51900e1U, 0xce24d1ff2e1300U,
  0xc51b0cf5f802daf6U, 0x273ee540e3a7c4e0U, 0xcef6f4def4fc00eeU, 0xce0be0061aff00U,
  0xf811f4ff0bbce5e4U, 0xddfdff25f2e9d9ecU, 0x0U, 0x0U,
  0x0U, 0x0U, 0x0U, 0x0U,
  0x0U, 0x0U, 0x0U, 0x0U,
  0x0U, 0x0U, 0x0U, 0x0U,
  0x0U, 0x0U, 0x0U, 0x0U,
  0x0U, 0x0U, 0x0U, 0x0U,
  0x0U, 0x0U, 0x0U, 0x0U,
  0x0U, 0x0U, 0x0U, 0x0U,
  0x0U, 0x0U, 0x0U, 0x0U,
  0x0U, 0x0U, 0x0U, 0x0U,
  0x0U, 0x0U, 0x0U, 0x0U,
  0x0U, 0x0U, 0x0U, 0x0U,
  0x0U, 0x0U, 0x0U, 0x0U,
  0x0U, 0x0U, 0x0U, 0x0U,
  0x0U, 0x0U, 0x0U, 0x0U,
  0x0U, 0x0U, 0x0U, 0x0U,
  0x0U, 0x0U, 0x0U, 0x0U,
  0x0U, 0x0U, 0x0U, 0x0U,
  0x0U, 0x0U, 0x0U, 0x0U,
  0x0U, 0x0U, 0x0U, 0x0U,
  0x0U, 0x0U, 0x0U, 0x0U,
  0x0U, 0x0U, 0x0U, 0x0U,
  0x0U, 0x0U, 0x0U, 0x0U,
  0x0U, 0x0U, 0x0U, 0x0U,
  0x0U, 0x0U, 0x0U, 0x0U,
  0x0U, 0x0U, 0x13ecffe73c0a005dU, 0x1f2a1dfc213800U,
  0xafefd11f6221141U, 0x12e4e90c0821f8f6U, 0xd207c71dfd0039U, 0x180d21d4d64500U,
  0x20141804e63a0617U, 0x29e8ea010e03fce8U, 0xe6dbf5ea2538000aU, 0x2df415e7c02900U,
  0x2b171c12d215050bU, 0xbfc0e0f0efff8eeU, 0xf9c506fb093e0007U, 0x38032323d22900U,
  0x26e919f4c1001714U, 0xfa2924ef1ef5ec05U, 0xe9fd00fa2800f1U, 0x2af91603e5f900U,
  0x4ee0204e0fd2810U, 0xe3090bf0f209d3fbU, 0x19da02ea34080065U, 0xf92926f41c4700U,
  0x1529db11e52a3631U, 0x28d40efb041e01fdU, 0xfb1f8fa5a15005eU, 0xe20cf4f9004100U,
  0x3341f0fb2112315U, 0x33f8eb0bddff18fbU, 0x17c9e5db311a001eU, 0x1820121aea2f00U,
  0x1363003ca062008U, 0xfceabd2813f526eaU, 0xf9c6e00d021f000eU, 0x5d182312d81a00U,
  0x1c111e0ed60e2e14U, 0xed1b132f231f0be5U, 0x10f10214ed4300f7U, 0x7ff6111dfcfc00U,
  0x19e32df8d9ea392dU, 0xb90c3613ed1bd1f7U, 0x1c0df9f669ef005cU, 0xcc1a4b030e3600U,
  0x11ef439da1b3826U, 0xfecaf9f9f1180ce1U, 0xafd0f013d0c005eU, 0xc446e435dd2c00U,
  0xef210e5ef600dc0aU, 0xf801d901e92425c5U, 0xf100f20a37eb00d5U, 0x74dc83ded1a00U,
  0x172c214c01d9e2f9U, 0xccf611090af107d4U, 0xd204de24170500d8U, 0x4729f919f10e00U,
  0x91b411feced48f1U, 0xba00341509f9d6e6U, 0x607ef30e73000e6U, 0x55faf617f9f200U,
  0x9e25f1013eb4517U, 0xe31a320c0c0bdff3U, 0x12f2ffce6be5001aU, 0xdc3d380d1cfb00U,
  0xee2f7560200061cU, 0xe8ef01f2d61700ddU, 0xcdd11ccd71ec00f7U, 0xc319c32be2e600U,
  0x25fa2c5dfceee605U, 0xbb0c06fd03c42be0U, 0xb8cef4ef3df300c6U, 0xf53ba62710f200U,
  0x2f06543fe9dff6f1U, 0xb81d1bcc17a2f1dcU, 0xe3f7f23608fe00d0U, 0x2341ec12300500U,
  0xa292d0d0c0346efU, 0xc41136d40cf4e5f8U, 0xefb024bf42a00ffU, 0x390106f5fcf800U,
  0x20841fc08083600U, 0x3f612cd19ede6e2U, 0xf5f3f0f204e20003U, 0xfef9f404fbe300U,
  0xe4fd282fe8ede60cU, 0xf3f002f716cdfb13U, 0x1dff9fd4eed00dbU, 0xdd01c91900d000U,
  0xe611323de7f1d609U, 0xde0928e71ec7e4ffU, 0xf2dbeb1d1ee300d8U, 0xdb10ba330ecd00U,
  0xef1b2e37edd4f2f2U, 0xcdfc1af225d6ece9U, 0xe62cec3208ca00ecU, 0x206ea0ef4ea00U,
  0xf633191808e90de3U, 0xfaed09e41e24ff14U, 0x81506400bfd00f2U, 0x13f22df5f50100U,
  0xf62217fbffe31dfbU, 0x2c0a0bcb1619e41aU, 0xb4afc06d2ea000dU, 0xf74a0efb1ff500U,
  0xfdd1d5fc02064e03U, 0xf1f12501d603f3f9U, 0xe579f1dcfaf200fbU, 0xf047d0df2a0d00U,
  0xde7b721290a17fbU, 0xb7d41600e05df8eaU, 0xf131fdf0f9e200f3U, 0x43e81cc1f3d00U,
  0xe719b4345405ee0aU, 0x99cf25fde53dcff2U, 0x172dfa15fbee00e8U, 0x22b9ad3373600U,
  0xfe2d9f2944fbe3efU, 0xb4d80706ed06d0e5U, 0xec39fe27f0ec00c8U, 0x1220d3e6262900U,
  0xe10dc0c23decd29U, 0xc3e1faec1328c210U, 0x31bfb010cef0032U, 0x383e05012d0500U,
  0xcb3d32df8f83f34U, 0xe4d226ebcd13f4c5U, 0xe26425f1fbe300eeU, 0xfa45d0ee411400U,
  0xeeffe51c071d3c44U, 0xd30229e8c702dccaU, 0xe5563f2526f100edU, 0xf013bacd242b00U,
  0xbc1f0323ff29021fU, 0xaf1242c9eabee8ffU, 0xfa3141202be200c6U, 0xf623a1e3203b00U,
  0xe7efef2b2907efe8U, 0xbff033d3fb9bd5f3U, 0xb62e0f2441d60093U, 0x121293be182300U,
  0x3409db2855eba6f6U, 0xb1f3f1ea33fcf71eU, 0x39f92416021b0034U, 0x2231e106111800U,
  0xf5c6f31feadd0770U, 0xdc351af1eaeaffb7U, 0x33193206f61b0000U, 0x3b35ea22440b00U,
  0xb6fff2fee5ef1377U, 0x2d252df8c9d3eb9aU, 0x2053ffcff08000eU, 0x1238e2094e0900U,
  0xa223e2fd24062747U, 0x12718f2d0fd01bfU, 0xfd0830ec22fc00d8U, 0x92cf0ed311900U,
  0xd1eb030420f34824U, 0xfa4406e0f5c6faecU, 0xb71318e010d500b2U, 0x1414d4dd292200U,
  0x1228e00c1317d9e0U, 0xd90addd324e00d0bU, 0x4eedf641ee1f001eU, 0x3180622ea1a00U,
  0x127f30afcdbfc6eU, 0xdc402f11d81011deU, 0x4ad726ebc2300005U, 0x3017fe251d0900U,
  0xd90a08000ceaf056U, 0xd22c1725da1a1ec5U, 0x1cee38c9e52b0024U, 0xb01230524f400U,
  0xd1fd07f431f4fc04U, 0xf31d10fffe2036ceU, 0xf1dc0edb03eb00e1U, 0x3eef17e7350900U,
  0xfa000cef2be5f2e8U, 0xf1ff806ff1133f3U, 0xc80d1ae00ef200afU, 0x26fc0db82d3300U,
  0x1c180afd2504bfedU, 0x15feea031cdf3e07U, 0x2300d217d01e000bU, 0xfe321119f80300U,
  0x2a25d62121fe2828U, 0xd8421d19cc40410dU, 0xedeedaf79b1f001dU, 0x21f85cecdbef00U,
  0x2bf8be094dfe0f1dU, 0xfa04f70ada204514U, 0xff0f19cdcdf20021U, 0x14db45ddf9d800U,
  0x1afcd6e4e50616d2U, 0x1c5f1120e1c1b09U, 0xcf1717f708d500f3U, 0x15d32ea010fe00U,
  0x200ffef9cff41397U, 0xfd1f72a14440401U, 0xcc11021234e500b6U, 0xf6070fde150d00U,
  0x471802ddf3fbfec5U, 0xd60bf51b0c0504U, 0x1d13f22319ef00eeU, 0xe3716fa1bea00U,
  0x9e80907fb2b3ceeU, 0x3c01011da190c04U, 0x3be5eb2513dd00faU, 0xf74334db19d500U,
  0x21e4fc150925222eU, 0xa40a00d41f220dU, 0x2ee5e31d1f290004U, 0x1141e5ca0dc900U,
  0xacef71ff324181fU, 0xeac83d1ddf132b07U, 0x4ce0071c1838000cU, 0xb31cfdd1fcd00U,
  0xefd7db2add39eef3U, 0xd2e64529f3f7190eU, 0xfff1305fc1f0021U, 0x2cfa18f4d5c900U,
  0x1ef0051cef23d019U, 0xe503f2f9e024db09U, 0xc0701f74ad000cfU, 0xf55b07e4dbdc00U,
  0x35f6ed33e52a10fdU, 0x2abc24f6b715f0b6U, 0xc0ed9f82fe400dbU, 0xf82a11db00c800U,
  0x38f41a4ee4fd27f9U, 0x4cc42c04d3f50ce5U, 0x5f4d2f907200015U, 0x37230ff3ec100U,
  0x30ff2b33bacf3a16U, 0x17cf381b04fa1104U, 0xf2e0ef1dd92f0029U, 0xd4231af41f600U,
  0x42feef31b7020c06U, 0xddc9103c031e161aU, 0xd412100cdc3a0018U, 0x10fa19c61def00U,
  0xb10df21e0220f4dU, 0xb9da0434f625de2aU, 0xecefdff17fb000feU, 0x3f64e3dde1da00U,
  0xfe0c2454b200f644U, 0xf7a04ce7d2cfddb5U, 0xf2d0ec1f40c300fdU, 0x2e130923e1fc00U,
  0x211c2133b2dd151cU, 0x22c334f5eeb2cdbaU, 0x4ded9132ced00f7U, 0x4a3719021000U,
  0x1d1a1314b5f53e24U, 0xdcee380d0bf3b4cdU, 0x10f21d120a26001cU, 0x5d1bd1081a00U,
  0x1507ec30c2103a25U, 0xf9ec2512140ed2f2U, 0x17111d08d8f300fcU, 0xcdf26ca0c0b00U,
  0xe2f0138eefd2a1cU, 0x20f20526fb58bc03U, 0xd839daed6cd5003fU, 0x1174cfde11f600U,
  0xe8dbfd5fecee305aU, 0xf0d674e3dfe0f3c1U, 0xd119031449d60050U, 0x4c24f6fffd1e00U,
  0xaee1661fcc52a33U, 0xd8f266e3f7bfdccfU, 0xe4f1f5fc27d40032U, 0x3b53100d023300U,
  0xfdf1082a20db2c4dU, 0xcbe723d10917d0cdU, 0xbf2f42921ea0005U, 0x412c01edec4800U,
  0xf8f1fe1029080239U, 0x12e6f9cef32ee5ebU, 0x2022ea38ebf700edU, 0x43eaf4ebcc3900U,
  0x14117270c020019U, 0x2ffd06ea162cfef7U, 0xca44d4383bec0001U, 0x3b60d8f8f50a00U,
  0xcc04ec5a2df81d2cU, 0xe1f837130918201aU, 0xa315dc1c37fd004dU, 0x5b4c06d7124200U,
  0xeadcec6d2e160f26U, 0xf2f94ae50d1b1513U, 0xf1d7f22feeec0054U, 0x3f21dcf10a6d00U,
  0x8fbf423361f2324U, 0xe5e229a4000c1f17U, 0x1714242cc6d500e6U, 0x3bd6e5f4ea5900U,
  0x1509f007182b28edU, 0xfcc109d50ffb3804U, 0xa141e18d0d300d8U, 0x2118d3f5024800U,
  0x44515fc40490d03U, 0xedeaf4dc12101715U, 0x11f1fa0efdf200f6U, 0xb1440efe0e0100U,
  0xfafde108f502f205U, 0xf00b0f06e302fcd6U, 0x2ff2003508df000dU, 0xb334f8fc44ed00U,
  0x250dde28eed30014U, 0xf4132102f42addd0U, 0x1000002ef2db00faU, 0xcd44081845d000U,
  0x19ecf622faccfc2fU, 0xea1b05150f2be705U, 0x1fee081b0bf900f2U, 0xc222f5fb54e500U,
  0x140f122419ffe72dU, 0x218fa21fd35f812U, 0x5e2e0c1119240017U, 0xd0080efb56d300U,
  0xaf60417201237d1U, 0x221f081ef7390303U, 0x23fcfdde2ce900dcU, 0xe463dffe0dec00U,
  0x7d6d72bd4f8ba35U, 0xcb0d15fcc002d9dfU, 0xf21b0dfb050100deU, 0xf94dbcf115fa00U,
  0x22eeea33c8cde72cU, 0xbff524e7e8fce30dU, 0xd70700d8f0d200caU, 0xf74216030aec00U,
  0x11ecfe16f1c70d0cU, 0xe7fb22f71e04dffdU, 0xdd0c170a00f400f8U, 0xf7381ed326e400U,
  0xcfbd01fd1ee3f321U, 0xcfa23fd0c10c829U, 0x601e35071cd000eaU, 0xe60af3f84ec700U,
  0xdbc9101018e23b02U, 0x57204039f109b9fcU, 0x1448e5c119f300f1U, 0x27fa1095ade00U,
  0xe4cac505210ad967U, 0xbab43007d1f712f8U, 0xb08e9d723f300daU, 0xf751b2ef69e400U,
  0xd3e9e015031eee5aU, 0xfdea4909ee08f21bU, 0x303413c810e700ecU, 0xe855dde153ff00U,
  0xdce2da04021ce735U, 0xfddc44ee1319cf0aU, 0x440115ec2bde00f5U, 0x24cd9cf481100U,
  0xd2ac0fd44efef115U, 0x20f728d31540abfeU, 0x7e26240f25c800f6U, 0xec29cb002cf300U,
  0xe4c2210f0aeef71bU, 0x2e1c2df3100e9f28U, 0xda2ebceefaec0004U, 0x13f3e1f7e1fe00U,
  0xeaf4ae1f572ac323U, 0xf9b180bf1201e1fU, 0xd42fe1c309cd00fdU, 0xda0b97132cf000U,
  0xcefecc166b31d167U, 0x2388360afe57e441U, 0xf42af1ad4eba0006U, 0xd32ba6d5411000U,
  0xc1f5cc001f102858U, 0xee8f30d40b4acc3dU, 0x3a280ebc41d500faU, 0xed2aadc9220000U,
  0xcdedf6eb2d111c06U, 0x4b70ad92f190117U, 0x3f230d0822c700f7U, 0xf100cdebe80500U,
  0xdbe81c0f0f0ff426U, 0x11f3e0cf150ede02U, 0xfeceb9ef30f20016U, 0x24d5e0e5270a00U,
  0xe106d0e7fe42d2f5U, 0x2ca2f2ed15d80f11U, 0xdf3eadf36b9000bU, 0x22a5cdf4fd0000U,
  0xb746bdcb4353e004U, 0x1e91dee81eeddf1bU, 0x14310cb63bb000dcU, 0xf5c7bdfbc11a00U,
  0xb33aafc1452a10efU, 0xf6acf02034fd0e20U, 0x102108cd2fb800baU, 0xe5ecd6f5bc0200U,
  0xbb37e8dd352b06f1U, 0x14a1f4212ed32e03U, 0xe813f5ef0ebb00ccU, 0xd5e3e0e9c61200U,
  0xdc0c0bee4d1df1f9U, 0xffd0ffe926f91406U, 0x8ff03f8ff0700faU, 0x130502070a1500U,
  0x7f9ece201ff08f1U, 0x4fbfd08f6e307faU, 0x27e50202070200e4U, 0x19f7ed091e1100U,
  0xf60cf2f0f40f01f5U, 0x4f60619f4f1fcfbU, 0x35f409fc010a00e3U, 0xbf7f90f151700U,
  0xe7fc08f1df0bfb05U, 0xf0f00fb01f814faU, 0x181008f2fc0700f9U, 0x7f2f7ffdc2100U,
  0xe4dffefaf6e11c25U, 0x12f7e20bf0150cU, 0xf70cf8f1f1140002U, 0xf317060828ed00U,
  0xfff9fcf515dd0ce5U, 0x111316f201f9100eU, 0x12f10c15091b00f1U, 0x2ffe907110500U,
  0xfde60ffc0307f9e4U, 0xfb05fffd00fb040cU, 0x15dc1b15f91f00e5U, 0x2608d7fc2afb00U,
  0xddef09f5fc15f2efU, 0xe914ec01170708ffU, 0x17e30ef4fbfd00e3U, 0xcf40803090000U,
  0xebf90cff082bf2ecU, 0x511e8f31e152208U, 0x41111fd041700e0U, 0x17e111f5f10e00U,
  0xe4e80eeaf40c17ecU, 0xf92ee7e8050c1913U, 0xebf504fefc150003U, 0x21f1fe01e3ec00U,
  0xedfa03f7f0f208dfU, 0xf26eb11f2ef100eU, 0xf01e1e0bfe1b00f1U, 0xec0fdff7150400U,
  0xfeda0ce42400d1f9U, 0xed0c010c1135db1bU, 0xef000903ff2400ecU, 0xf807ebfd23ef00U,
  0xefc91af22413e2ecU, 0xbd1001f800260338U, 0xf91d03e3ff0600f2U, 0x7e3dfeb25e500U,
  0xf1d5290221f804b9U, 0x50604dc170c0426U, 0x13101607081a0008U, 0x15edf4022ee900U,
  0xf1e31bfbf5e9f4ceU, 0x1b031cee05fef61fU, 0x2fd130e290600e3U, 0x2ef9cf1511ed00U,
  0xe0801fffee4ded5U, 0x91002400ae71241U, 0xd23700def50200ecU, 0xf005feeb0c0100U,
  0xbe7d6090a01db01U, 0xe7da020c0f58cd17U, 0xd81d25b2e41900f4U, 0xeef7f20312e400U,
  0x16d5fee11afbf0eeU, 0xf5f903fb1431ee30U, 0xf03c30ddf72100e7U, 0xf8fecee835e600U,
  0x4e207d1f5df06c7U, 0xfbe4f6ef3328194cU, 0xff291efa050f00fbU, 0x5dfe2ea0edc00U,
  0x1ef6fcfdf0d801cfU, 0xfefd011a27280b48U, 0x10e250e2ef000d2U, 0xfaddb4f3f3f800U,
  0x25040203e4e2e7a4U, 0x5fe014023e01345U, 0x860adfd7f5ee00d8U, 0xda070ee80dfc00U,
  0x9dfe2f1cd06d0efU, 0xcbd03e0114ac40dU, 0xbf1e0cbbdae200edU, 0xe7f91ee0faeb00U,
  0x20ffe5e9aadae9e8U, 0x379dfee82559c823U, 0xdf2e1fbff4ea00d7U, 0xfde711bbe0e600U,
  0x2232e2f381e1f1b9U, 0x33a7f5083355f560U, 0xfb113c0e370000d6U, 0xf5b8daa1e7c900U,
  0x1e43f8fca5e4f796U, 0x29c5f9323e220358U, 0xf10f0f4b1000d5U, 0xe4c5dbdae2eb00U,
  0xd09fbf8cad9f295U, 0x29f4f9272ad0f71eU, 0xfcdd05e3f0ff00ffU, 0x31daf5f6ff0e00U,
  0x22009dc0404ff0aU, 0x14eef5fb12d10001U, 0x19dc0ae5040100ebU, 0x30fa14e4f5e300U,
  0xe30802d3d41721cbU, 0x28c300fb0bbc100eU, 0x25e509e3101600e4U, 0x1b063fd6cfba00U,
  0xc70205d9c5341fb5U, 0x2cc4f7f43ad71506U, 0x24d211e71b120009U, 0x1f042bcce3ca00U,
  0xc505fa0cb34506d7U, 0x33e8fcda24cc28feU, 0x3bc819e60e0c0012U, 0x33222be9f8d800U,
  0x108f308c74cf3fcU, 0x20e8f9f1f3c31dfcU, 0xfee30013fc050001U, 0xbd5ebf3c71800U,
  0xe12b22ded202eef1U, 0x32fe130627d1ee05U, 0x6c5ff111feb00eaU, 0x1becf6f3b2e800U,
  0xc630f4e5b71905bbU, 0x42f7fa0e1dced207U, 0xcd3e9fa180800e4U, 0x37e91c00b5e300U,
  0xda1905fed50e0dc7U, 0x110b26f030f3c901U, 0x8cedf01fb070035U, 0x1ceb4416c4ee00U,
  0xc91a2a10b51c27fcU, 0x14fd15db1e0ff8fdU, 0x18cc0308baec0018U, 0x1d044703ed0c00U,
  0xf12b2b199b1a20fdU, 0x3bd61cf2e914e8f0U, 0xead9fa2cde0e00ffU, 0xc5e8d50bf81a00U,
  0xd0400ae0c300ebfbU, 0x162a251518980008U, 0xf5e8070df9e600f9U, 0xe8c9d5f9f80300U,
  0xbd451cf8fa26fae1U, 0xff1f2e1017e0e9ecU, 0xf3efedeef3f90009U, 0xf9fc1d32ff0d00U,
  0xde38390ff9f9f624U, 0xec26eff00823fed2U, 0xffbf1317db0b0041U, 0x13092841f02400U,
  0x3022214d2f9002fU, 0xf1604e7fa03e5ecU, 0x21c9f52dedcb001eU, 0xf90d3a4a1a3f00U,
  0x2223152cfde52310U, 0xf4de2ac8001bddf8U, 0x2a0a00f3dd0b00fdU, 0xcceef603143000U,
  0xcb30f117e70b01f9U, 0xf01a363825b8fde8U, 0x2fe5f6e71d1400f2U, 0xeb07b016362800U,
  0xbf15f93c10220b18U, 0xca16191f19f6f6feU, 0x19e701ede72b000aU, 0xf100525063400U,
  0xf3fc1115f9121b2aU, 0xe53119ea0828f607U, 0xe7f1121901e7003eU, 0xbf723311d2800U,
  0xc24e9020a251224U, 0xb91b190a01ecda14U, 0x3eae2142aac0048U, 0xfa14e30c422900U,
  0xf38da17051107fdU, 0x81c60ef4f8091321U, 0x1ef4e0e9f51c00f8U, 0x40a05050e2400U,
  0xf021e009fb220b04U, 0xe4f60804f3e520f8U, 0x10fa00c9fe190008U, 0x2f0bde13fe1c00U,
  0xdffcc01f08371914U, 0xcfe700eed0db2a04U, 0x191e2de811f80001U, 0x1ef7e8f4e11000U,
  0x1f09e9ecf71a1323U, 0xc2d60dff0cff1fffU, 0xef1415f315d800f0U, 0x6e7ecf0f71000U,
  0xf919cdd60631f124U, 0xc4b5021515e11202U, 0x150dfe0423ea00f9U, 0x1fcfaef252d00U,
  0xe813e109f52b030fU, 0xbba7f2e7ebeef508U, 0xfcf001fe0e0100fbU, 0xcf3fb05e3f700U,
  0x1fd0113fc06de00U, 0x7ffe9ff150bf908U, 0xf4ee0ece050100ebU, 0x21d80bf8dbfe00U,
  0xf8ff03f6f0f9fcf3U, 0x8fee8f41cecd810U, 0xf00617e2f80f00fcU, 0xedc3de7dbed00U,
  0xf3f811ed020d2bd3U, 0x171601f41e07d206U, 0xf6e615f3e4050009U, 0xf2ea30ebe8c300U,
  0x39fb0cff21e1U, 0x193a0ef90d17eae2U, 0x7110b0506f400f7U, 0xf9f02b0be4fd00U,
  0xf1ef2b071b143afdU, 0xe251bf6f335cedfU, 0xdfea0aeef21000f5U, 0x17ddf3ffd40200U,
  0xf60ff8fbf90ee205U, 0x1fe010516f10e11U, 0xec0218d8f51200eeU, 0xac814e6d40000U,
  0xf209fde208ffe0efU, 0x1b02010613f1ed2dU, 0xfc1af2f3ea1800f1U, 0xcbd14e6daf800U,
  0xf4f301e403fbf9feU, 0x5210117070ff616U, 0xf818faecebfd00f4U, 0xffdee6f9ebd800U,
  0xf1defef00bf10800U, 0xfa1a1d18ee1bf9f1U, 0x12170802090000edU, 0x140f04fe0100U,
  0xeedc2903030b2f00U, 0x15312ef5e814ece3U, 0xebf1feecf9050006U, 0xf7e3f509f10000U,
  0xff0703ecf012fe0cU, 0x6fc0a0a15de120dU, 0xff02f6ebf7fe00ebU, 0xf1c504e9ecf200U,
  0x72104e2ee00ebf7U, 0xf800011413ed001bU, 0x917fcfbf9ff00d4U, 0xfcd0f1fffae100U,
  0x5021bee1410f3f2U, 0xf50df417fd070811U, 0xf0f8e8fa0b0f00f8U, 0x7fcef1301e600U,
  0xf5d215ef0c0efe0fU, 0xe070100f119fbecU, 0x1100dc0f2cfa000fU, 0x10242623f1f300U,
  0xebba390010043f1aU, 0x1a3edbf51ce1e8U, 0xf2170205f6fd001bU, 0xe8e3f708081200U,
  0x215f8010deef508U, 0xff0d100701e112fcU, 0x910dcfdec1800efU, 0xdae5dcfa140e00U,
  0x1414f115fce1e401U, 0xfff21208f6e5fdf5U, 0x9f3cb0a020000e4U, 0xf918ffef2bf100U,
  0xeaf5fd2115fdf102U, 0x30a1102cff201edU, 0xbeeec1025e60003U, 0xf828f7091ce700U,
  0xebd60f0d1f180724U, 0xf6100ed8e10cf9d1U, 0x616ec0c10e70028U, 0xf61e0c20f8fe00U,
  0xbdd4211a27243e32U, 0xcf271ccef442c9d8U, 0x1101f810f80a002eU, 0xcdffc051c1100U,
  0xfb23130e1a060711U, 0xfd1f080ff2e11800U, 0x20f9f207f7040021U, 0x25dde40c271a00U,
  0xed1dfb1c1515fa1fU, 0xf60f0f1af9f70700U, 0x26fbef07ff140017U, 0x2d13dc193b3000U,
  0xfd100a113123f931U, 0xd60b0b10040200efU, 0x230100dc09ef0005U, 0x3417dd3a1b1700U,
  0xe5f315ff67341446U, 0xd517fcd5f81906d5U, 0x1229f0fae3f000fdU, 0x21fde41bfb2c00U,
  0xd00011177f341748U, 0xc4320ed6fa6afb09U, 0x160df10e01e8002dU, 0x26402bf6121600U,
  0xceeda00fc1e4507U, 0xf7c40a041409fa25U, 0x2114d6040afc0029U, 0xf326510a103d00U,
  0x43d9c61ff3072fefU, 0xf3af07eb0e23f916U, 0xa14ced214350005U, 0xf6370edc1c4700U,
  0x3ae0c137f7020a19U, 0xb8c319eef92af9ffU, 0x1905cdf71136001fU, 0x82200ba264c00U,
  0x3ff5ad21f7f9fc28U, 0x85c802f5e056ff19U, 0xf03a021432240012U, 0xf527fea44f3c00U,
  0x24f8cd171ee50d0fU, 0xa3e803f4f359e928U, 0x1030eb0138df002bU, 0x1a4135f1b93500U,
  0x33d8c72adf2c48f9U, 0x11940ae4241ff515U, 0x293fe3f62dfc0011U, 0xf84d2b2dc83700U,
  0x56b3b052db0244eaU, 0xcde43cd202fdd3feU, 0xd93fd902161700fdU, 0xfe0e0ad2000f00U,
  0xece1d4302a0e37f0U, 0xb5fe36e5d90ae5e7U, 0xfc1af804fe2200e7U, 0xc2602d3020b00U,
  0xe3ebdb0c382c2226U, 0xeb1b39ead21700f1U, 0xe068feff2f1100e1U, 0xf824dfa4f83400U,
  0xf3c0cc243a0cde1dU, 0xbd34fe10fa5ed72fU, 0xea0506286a030020U, 0xe7f41308903b00U,
  0x3ef1f039f115ff04U, 0x25fcdeb82af3de10U, 0xd5240d18fa0d0010U, 0xfe281437c52300U,
  0x51c20d34deea3c05U, 0xfc3115ad1adcc5e6U, 0xc820190fe6fd0013U, 0x281c1b0bf5f000U,
  0xfdebf6130ffe33feU, 0xdb1920cbe8f4f9f2U, 0xfcfe22ed15d50008U, 0x170cfff701f900U,
  0xf7dd2ef029e7431aU, 0xf100de7d2ef08d9U, 0xe235180f43c600faU, 0xf814cbcad15500U,
  0xe8d3171419eeee09U, 0xe13b1ee7e82edc08U, 0xed3f73843fa001cU, 0xf6c4ea2dd41400U,
  0x1d3c16f5eb07e4fbU, 0xfb08b9ed2281f9ceU, 0x13edf0f1ca0900f1U, 0xe81df43c0c1900U,
  0xf81600e8d6dd2644U, 0xf83109ee12becbc7U, 0xf5f3ff04f1fb001cU, 0xf42ae5ff3f2100U,
  0xbffd04f6ee03273aU, 0xfe3319ddcceafac4U, 0x3f3290823d2002eU, 0x1415d3e31cfd00U,
  0xe3e432170bf72908U, 0xec2b0bc7c8dfeec6U, 0xdef905153ddb0020U, 0x1809a401cbff00U,
  0xf0d636f138f3faf1U, 0xd92ff6f6defdcd0eU, 0x39c22425f5120050U, 0x11c8e9080e0d00U,
  0xe43122df08020418U, 0x1915dc14f89d38f5U, 0x39d30904ce030006U, 0x1bd4d139211600U,
  0xbe3203c4112f1932U, 0xf426e6edeabbffceU, 0x14ff210224f70004U, 0x25e9caf91b0200U,
  0xa02df0d3051c012aU, 0xf0f40011d4f01fc8U, 0x6ff4ee245ce00f6U, 0xee8d6e507fa00U,
  0xb01402e716251c1cU, 0xfbfcf601e716effaU, 0xe808240336f30009U, 0xbf5c7fed7f900U,
  0xf6ec07e61a1a0b07U, 0xfa1f02fafe03eef1U, 0x18d702fa3c300000U, 0x24192707fc1400U,
  0xbf73006f9401f1bU, 0x132af81ef91a0cf7U, 0x1ad504f0110100e9U, 0xd1c240efefb00U,
  0x26dc27f7102c1231U, 0xfc18e129241517dfU, 0x17dd04fb281700e6U, 0xf50bf5fef1e500U,
  0x18ea1b0efd210d1bU, 0xd732f41d0c0c18f6U, 0x22f0fa0d163100efU, 0xe8fbe1faf1ef00U,
  0xef20b21e00bec29U, 0xe321f71eed0ef4e6U, 0xc010201042b00e9U, 0x403f6060ae200U,
  0x13ee01061204d8f7U, 0xf9111008f6f0dee5U, 0x3ff6130941330001U, 0xca3408f63f0200U,
  0x7f2f20b1045f603U, 0x739eb1ce31937d2U, 0x32eb14032d4000cbU, 0xd730011013eb00U,
  0xac409000718e3f8U, 0xe31ac81001172aecU, 0x5e418d1262f00e7U, 0xde38f91302ef00U,
  0x6d709fce314f228U, 0xde23d21cf615e8e9U, 0xf0e619e00e2c00e7U, 0xf414ffdb0a0800U,
  0xde0fb06c4ffd129U, 0xfa01d13af21beaefU, 0xfeedf9f9e63100d6U, 0x14f0260ef91000U,
  0x30f0f604bdeb1f15U, 0xf8f6fe11fd20e213U, 0x2d060f0326210003U, 0xb24911e006fb00U,
  0x2e1fefd0437eb05U, 0xd215ff31d73f37d9U, 0xde07dd182300e3U, 0xc21116d7f1ea00U,
  0x4fef1f30020d5dfU, 0xcf1af31ded2201faU, 0xfa040fa8110100cdU, 0xec4517dfece100U,
  0xeef2ec040b0cddf5U, 0xe122eb09f616f900U, 0xe4ea23daec0d00faU, 0xc252be8f40700U,
  0xf3f1e514ddeee424U, 0xf0e7ef0b292dd939U, 0xe6f812eadded00eeU, 0xf2fa39f5e82f00U,
  0x15fcfa1fdcce1224U, 0xd0e7e5ee317fd71dU, 0x1f17edd6280700e9U, 0xcf590bef35ec00U,
  0x1fdfc21ef009ef0aU, 0xcdf31f15c740eed1U, 0x40becdd04ea00ddU, 0x400de512e800U,
  0x2bead22ac1fbff26U, 0xd6014c36cb2af5e3U, 0xe9f4dcb118bf00daU, 0xfa491cf3e50b00U,
  0x26d7f327d6e01600U, 0xcfd93805fc33d336U, 0xe0c0e7c406c500f7U, 0x40813f10e1700U,
  0x29dbdd26c2d60a14U, 0xdfe11de32d1fdb40U, 0xc90b04e6e0b70012U, 0xe7e32fe8133300U,
  0xeafbe93006e7112eU, 0xb8fefae12f79d717U, 0x9c1cd0e6fbd800b9U, 0xf630e0fa28e900U,
  0x9d2d634fedcecfbU, 0xd3c90902d21edef0U, 0xa813caf830cc00dbU, 0xe949e0f029f400U,
  0x3808e148e6e8cc0eU, 0xcfe82c14ef46d611U, 0xb8ecd8d7f3c900e0U, 0x71cdf024a2500U,
  0x43f8f745bb06ea0eU, 0xd2221cf22e4ace1fU, 0xc6e2f9ca05ab000eU, 0xa11bcd7492700U,
  0x709fa27db22ff05U, 0xe5edff0c3c22d319U, 0xee1af8fb2fc20000U, 0xff14e1ef394200U,
  0xe20afd322d3bff1bU, 0xc2e207ea1841e32cU, 0x3f6fe19021700dfU, 0xda0cfefdf3f900U,
  0xfee9e9fc04fafff3U, 0xfd000700f803ffe2U, 0xf09012201f500feU, 0xe72a02070af100U,
  0x2fbef12ef0200eeU, 0xe5fc040604130403U, 0x1ced0721ed0b00f6U, 0xe82902fc12d800U,
  0xf720fb13e9fee6f8U, 0xdfe40d121109fc0cU, 0x261e1122fa0a00f2U, 0xfb2afbdc330700U,
  0x1a17ea15f5ffd6f3U, 0xe6dd0408f80f0318U, 0x110d0e1ffa0400f2U, 0x710e50d26f700U,
  0xf26fefb0a0ff108U, 0xdf306f804f00b08U, 0x12e8fe010dff00d0U, 0xd122ec090ad900U,
  0xfce4f30cf6f6f60aU, 0xdb0e010fe2ec00c7U, 0x5dd0517fde200e3U, 0xf62be91815e100U,
  0x1cff02fbfaf70618U, 0xf0f9ea23f9eb20d7U, 0xafa0a2a040300fbU, 0xf72a000908e600U,
  0x141b0631ddf3022cU, 0xf4ec031a061100e3U, 0x1c15011903ff0002U, 0x81504ee280300U,
  0x1320f50fe8e10110U, 0x7e0fc0b1706fd11U, 0x101d17370be400f1U, 0x70efbe72e0600U,
  0x1a28f50109ea0702U, 0x6c912fc0ae6132eU, 0x21f302f91ff500e0U, 0xf451df121ccd00U,
  0xf2ecd30efbf7f93cU, 0xa5f53423d2e717b6U, 0x24e2fdf5fc0000deU, 0x332e6132cf300U,
  0x10ec305eaf0d92bU, 0xe50a1d24d0d728a5U, 0x12ee0407f7f40008U, 0x235f402320700U,
  0x3321de0ed9f3ef0cU, 0xf1eff10df805f7ebU, 0xb0327eff7ec0007U, 0x161e30f5180500U,
  0x220606f3eaf01611U, 0xfcf611fc2808c92cU, 0x140e002414cc00fcU, 0x61c3edc211700U,
  0x3d1de71503fb17feU, 0x17d216eb23ece529U, 0x2a14da0134e400f5U, 0x1442f7fc18db00U,
  0xf4d3bd1a20f11e3dU, 0xabe7531ad7e31ec1U, 0x1d0802fe1ff800c6U, 0x2d31db0205da00U,
  0xe8f9a23725ffef45U, 0xd4e55f47cecd29b8U, 0x1c1507eff71d00e6U, 0x352f0c414ff00U,
  0x13dd44ff11eb06U, 0xf4de422d080909f1U, 0x1418fdedea160010U, 0xf402ad1271800U,
  0x2f1ae4001b14190bU, 0xfcde1004461ae523U, 0x130ae825e00100f4U, 0xdf374c0191700U,
  0x3928d61cdffd0f07U, 0x10a310002d0a0426U, 0x2af7d7e912e600cfU, 0x1e1aeaf44afc00U,
  0x2d1bc0ae20027f8U, 0xcdb12008cde6f0deU, 0x1326f414370500eeU, 0x326bb90541ed00U,
  0xeabbc1437f1e0606U, 0xfaf960e8c2f027d5U, 0xb491cee291700feU, 0x1775dbe816fb00U,
  0xf3ffa74b5c1a0831U, 0xd9ca50ecea2a060cU, 0xd55f12f0d8fa00f8U, 0x16200999124600U,
  0x244daf1f202e0ef5U, 0xdf9a25ea392f0244U, 0xc601ff0de5dc0024U, 0x6f442b7205e00U,
  0x4930d0180b1c0301U, 0xf1870c0d0a231330U, 0x1e10fc1229110002U, 0xdf28faff31df00U,
  0xfbe3fb2a081006eaU, 0x8ee1c04dc3910e4U, 0x1cfbfc0e0fe90002U, 0xf02b22f72bd700U,
  0x9eb01030a10f2f3U, 0x1bbf0dfffb1407edU, 0x1ce4e8f518ed001aU, 0xee352e043eea00U,
  0x12e60cfc220a200eU, 0x3bdd130917320bf1U, 0x2fd8f41438ee00f6U, 0xfe2333dc4b0400U,
  0x60200fc171c15f5U, 0x19d90c0817211615U, 0x2af90d063bf400fbU, 0x10e3bd8150d00U,
  0x1b1c170b1c341cf4U, 0xf3fcf6010a101426U, 0x14210df414dd0002U, 0xf3240b10fdef00U,
  0xfedd1f0713fe15f5U, 0x2ff40cf4dbfef7e5U, 0xf90cecee37dc00ffU, 0xed33fd01e6f500U,
  0xfff609072bf41cc7U, 0x33d836d7fff9ebe8U, 0xece9e3f244d8000cU, 0x838201afef400U,
  0xcc0308ee1ef403c9U, 0x2bf01fdf24f8e4d8U, 0xfcf404f435d200d3U, 0x43c211026e800U,
  0xdd0d0ffb0a21dedfU, 0xfc12e7fb29f906f2U, 0x34121de01bef00b6U, 0xba1ae5f21c0a00U,
  0xf01406fe2729d6d2U, 0xbe5fb0e27ff0eU, 0xe42c1de833d000f3U, 0xfd002214f1ea00U,
  0x6cc4f111cdd1cddU, 0x2601ecddea16cae2U, 0xe01bf11e7fcc0001U, 0x1623ebf808f500U,
  0xf9d3381e32c163d0U, 0x47fa1adaf406d7f2U, 0xe504f3e644100029U, 0x1b2519eef6ef00U,
  0xd201292f17ce3cd5U, 0x42f819e508e60bcfU, 0xf1008f3fb1c00f4U, 0xcf2f0def80500U,
  0xe017f90f060109aeU, 0x1d15f2f60b171cc0U, 0x491107e7ff2000f1U, 0xedfcdad6010100U,
  0xcf01efe503151fa1U, 0x2c090ae004f00cdcU, 0xfb0029ee0dd200ebU, 0x5ea18160eed00U,
  0x2c455dd1fe4e5fcU, 0x841d90516f0cdeaU, 0xf0f9062c60df00eeU, 0xf412f00420eb00U,
  0xecdc55ea2ee20d05U, 0xda3ae4f40a0fac20U, 0xb9e0eb2d3de20024U, 0xff04050dfe2100U,
  0xcae93d002cdf1c2fU, 0x1005dcd1ea11d3e4U, 0xb701f72ff5f40020U, 0xfdef2113f43500U,
  0xe0f14af114d52622U, 0x2a1aeecbe821e1d0U, 0xf8ffe802b8200045U, 0xf6f44040e21800U,
  0xdee34aeef6d63c2fU, 0x3e1bffdef30fede0U, 0x2e0612f5ceed0022U, 0xffdef50a06f300U,
  0x1f72ffb1307fb14U, 0xa16fc1c02fc1202U, 0x3709dd25e2ef00feU, 0xf7d9f92e1ff700U,
  0xbe95dd73718e916U, 0xe241ef0a3128d31bU, 0x1ecd14541d80012U, 0xfe03ff4b122200U,
  0xffe25ded160cf953U, 0xb739eff8090ea6e7U, 0xc4dee0111aee003dU, 0xff2d1c50455a00U,
  0xebe8520e1004017aU, 0xf655f8c9e113a4ddU, 0xcdfaf211d6fe0039U, 0xf3273f42242900U,
  0xfff92c173bea1147U, 0xf3560ac4df3df8f2U, 0x0U, 0x0U,
  0x0U, 0x0U, 0x0U, 0x0U,
  0x0U, 0x0U, 0x0U, 0x0U,
  0x0U, 0x0U, 0x0U, 0x0U,
  0x0U, 0x0U, 0x0U, 0x0U,
  0x0U, 0x0U, 0x0U, 0x0U,
  0x0U, 0x0U, 0x0U, 0x0U,
  0x0U, 0x0U, 0x0U, 0x0U,
  0x0U, 0x0U, 0x0U, 0x0U,
  0x0U, 0x0U, 0x0U, 0x0U,
  0x0U, 0x0U, 0x0U, 0x0U,
  0x0U, 0x0U, 0x0U, 0x0U,
  0x0U, 0x0U, 0x0U, 0x0U,
  0x0U, 0x0U, 0x0U, 0x0U,
  0x0U, 0x0U, 0x0U, 0x0U,
  0x0U, 0x0U, 0x0U, 0x0U,
  0x0U, 0x0U, 0x0U, 0x0U,
  0x0U, 0x0U, 0x0U, 0x0U,
  0x0U, 0x0U, 0x0U, 0x0U,
  0x0U, 0x0U, 0x0U, 0x0U,
  0x0U, 0x0U, 0x0U, 0x0U,
  0x0U, 0x0U, 0x0U, 0x0U,
  0x0U, 0x0U, 0x0U, 0x0U,
  0x0U, 0x0U, 0x0U, 0x0U,
  0x0U, 0x0U, 0x0U, 0x0U,
  0x0U, 0x0U, 0x9d2030a110100fbU, 0xf4d9ddfb1aea00U,
  0xfa0d0df40b0cde0fU, 0xbfffd08f1f418f6U, 0x14e806ee0ffc00e8U, 0x6f1cde413c800U,
  0xcd180beaee17c9f4U, 0x1cfaf80df3ac18dbU, 0x12db02fb21f900efU, 0x13fbe4d6faa100U,
  0xcc100ff9c227f3f8U, 0x2bf3152505a618dcU, 0x19b00df2e2f40011U, 0xb0320fee99400U,
  0xd6fb32f5ac30e8f6U, 0x2fec102607980ce3U, 0x35ab0ef6ceeb0019U, 0x23f00702b99300U,
  0xfc100cfa9e33f3ebU, 0x1be2e90bf7bf0ee0U, 0xde115e404fb001eU, 0x3ffd10114ed00U,
  0xe323f0eee4fee326U, 0x132c3311ebdd0ad8U, 0x11e0ec111cf80027U, 0xf08dbe80ed300U,
  0xc62117fae80c00f0U, 0x19091515e3b501f0U, 0x4c7d6fd14160017U, 0x2b0a1dfaebde00U,
  0xba1afefcdcfbf9f1U, 0xf804e90404eefbecU, 0xf9b4f700e71e000cU, 0x3c034f1202ef00U,
  0xd3131bf7b60f0401U, 0xf904f007fdf0ece0U, 0x33ac04fd9a140030U, 0x28fe3b010be800U,
  0x82e2202810c2722U, 0x26e81200f6e4e7e3U, 0x1405e8e413f70019U, 0xfc38f80dfff500U,
  0xc719fb01e6e32329U, 0x8f04619f3f31fe2U, 0xf3e21412f10026U, 0xf1183aef1d0500U,
  0x9a020607f5f40a0fU, 0xdf13df90614ecedU, 0x2d604dd27d60023U, 0x242928e71c2600U,
  0xb10f030df8f5f820U, 0x8ecec01f42dcde2U, 0x1bc21608fee70015U, 0x2d12290f002800U,
  0xdf181e22fcfe0602U, 0xebe0dfe4ff0bc6edU, 0x5bd6040bdcf100fdU, 0x1cf02cf6291a00U,
  0x10361128d1e50012U, 0x17ccec070d20c4ecU, 0xf814d7f423ee0004U, 0xb1f0101f0f400U,
  0xe7e7012e0ced4418U, 0xfdf23513f11c07daU, 0xf2f1ddfb27f7000fU, 0x8201701ca0e00U,
  0xe2ff0e0f22e24b1eU, 0x1ce92c120e22ffdeU, 0xed03efd323fc0006U, 0x14040f00cc3500U,
  0xd20c06103d102533U, 0x9ec1815122212dcU, 0xd9f807090c050013U, 0xfeeeff28d13f00U,
  0xef161212191e0d07U, 0xee0809ea0f2f05e5U, 0x10f4f51cf42100f5U, 0xfefbcc03f63200U,
  0xf39f6fe0efbfcf2U, 0xf0fbfef6222009f7U, 0xfa14ee0d16f100d5U, 0x11151514defd00U,
  0xfffb26211cfe2017U, 0xd80105f3020afa0aU, 0xe8fafb0424ec0003U, 0xae704f6dc3000U,
  0xbef480c11f0210dU, 0xfdf2e9f90111f9feU, 0xf8e4180505ee0003U, 0x4e2dc18e64000U,
  0xf4fd48fc10f6e4fbU, 0xef15d6de11f7fefcU, 0x2fd0f110bf700e2U, 0x15fbdc4cd30c00U,
  0xb0c3cf6f9feebd3U, 0xc94309d013ff1effU, 0xf00b0e0e13fb00f3U, 0xceee217e8f600U,
  0xf20c0cfe06060ee0U, 0xb70c00ee1ae71a0aU, 0x0U, 0x0U,
  0x0U, 0x0U, 0x0U, 0x0U,
  0x0U, 0x0U, 0x0U, 0x0U,
  0x0U, 0x0U, 0x0U, 0x0U,
  0x0U, 0x0U, 0x0U, 0x0U,
  0x0U, 0x0U, 0x0U, 0x0U,
  0x0U, 0x0U, 0x0U, 0x0U,
  0x0U, 0x0U, 0x0U, 0x0U,
  0x0U, 0x0U, 0x0U, 0x0U,
  0x0U, 0x0U, 0x0U, 0x0U,
  0x0U, 0x0U, 0x0U, 0x0U,
  0x0U, 0x0U, 0x0U, 0x0U,
  0x0U, 0x0U, 0x0U, 0x0U,
  0x0U, 0x0U, 0x0U, 0x0U,
  0x0U, 0x0U, 0x0U, 0x0U,
  0x0U, 0x0U, 0x0U, 0x0U,
  0x0U, 0x0U, 0x0U, 0x0U,
  0x0U, 0x0U, 0x0U, 0x0U,
  0x0U, 0x0U, 0x0U, 0x0U,
  0x0U, 0x0U, 0x0U, 0x0U,
  0x0U, 0x0U, 0x0U, 0x0U,
  0x0U, 0x0U, 0x0U, 0x0U,
  0x0U, 0x0U, 0x0U, 0x0U,
  0x0U, 0x0U, 0x0U, 0x0U,
  0x0U, 0x0U, 0x0U, 0x0U,
  0x0U, 0x0U, 0x2efbf50521f700f1U, 0xcf4c3d0af8ee00U,
  0xef0f919001417a1U, 0x1e4e8051734f3f6U, 0x3be8d11803dd0029U, 0xe0357118d2fa00U,
  0x3cd314270fd913ffU, 0x3f3f3ef3a52dcd3U, 0x1f2ba0eddce0056U, 0x333106e55800U,
  0x46db012424c11543U, 0xc9d4e7e9f864cfebU, 0xd317dd0aecf2001cU, 0x21b1f0ae87300U,
  0x5403e71e15c7312bU, 0xbcc9f5ede67fc41fU, 0xb122f3fee10400cfU, 0xdb0423f2fd4600U,
  0x27fef40921bb0338U, 0xf6071defe563c303U, 0xf03ecf72dfb00fcU, 0xd7252607f1f700U,
  0x19d5f33ef51d09d6U, 0xfed609eaf32ddfe5U, 0xf1ce02afbc1000fU, 0xd337171c1c1000U,
  0x23c52c3419e01efcU, 0xf0d7dfc8f63bcc1aU, 0xa0ae11ae2c5000fU, 0xca59e3eb115900U,
  0x507331e06dc093bU, 0xe2bfece8e71dae31U, 0xed37edfa05e20042U, 0x744f0bdfa5b00U,
  0x201ee5150e071d08U, 0xdbb4fa10f80fad13U, 0xba3c060c350e000dU, 0xe4effcd5d8dc00U,
  0xf4f6fe0204df0324U, 0xe3e12039f301b2fbU, 0x18f9f328d60018U, 0xfc32ff1004e000U,
  0x24b51259ee1942f2U, 0xafd52f02c9f7d6c9U, 0xfd17f52207cf000bU, 0xff3fe61f0cf700U,
  0x3fdd244a120b3be8U, 0xbfd131dbf3e3e916U, 0xf0bfc1525cb00f7U, 0x1a4be50d071900U,
  0x3114f3101ef92a0eU, 0xcec222dcf6edb935U, 0x21906031a000025U, 0x62ce5b40a3700U,
  0xf20be43617090a1aU, 0xe3cd15ed0115b717U, 0xdc18061d501c000aU, 0xfbf4dfe3fef300U,
  0x15eaef0cf8ede014U, 0x2fc2f1d030ab605U, 0xeb2e03e324870010U, 0x3718ea26dfc600U,
  0xaf181b05f77119U, 0xe1ca3de7c6ded9e6U, 0xfd1a0cf71faf00eeU, 0x333ed41607cf00U,
  0x2db03d3f15f63f08U, 0xece040ed07d7d309U, 0xebf717fe18f40022U, 0x2c35d6d90fea00U,
  0x14fb093c1dfe300cU, 0xd6c22de01b01dc23U, 0x15110f162116000cU, 0x2300c8a826f400U,
  0xf30df03913031701U, 0xf7e5fc0e0a1d031eU, 0x4fcf71801450004U, 0x1af2d1ced5de00U,
  0xf9fad9fde60401f3U, 0x24ef071f16e712fdU, 0xb1011003f7bc0011U, 0x6409f802aae800U,
  0xf3d7f3010c043429U, 0xefb72beff7fef824U, 0xcf050b2402a600f5U, 0x471beef8ded600U,
  0x5fc092c2515202aU, 0x3c929f71205ec1eU, 0xe6072afee5da0025U, 0x21e4e8b0f40a00U,
  0xe23607fdfcf72512U, 0x21c425062efb002bU, 0x19090f25f715002eU, 0x7cd1eb8ff0500U,
  0xe32cf5fdd5161edaU, 0x38e3f73b2aea0026U, 0x30a08fddd3c0043U, 0xdd90bc8f8f000U,
  0xf219e50bbe29fcccU, 0x12f3f51af8e31902U, 0xfaf70904191500edU, 0xfddcee00092300U,
  0xff2ef1f00610e11aU, 0xc03fe08fde22b14U, 0x7ea0e00183f00daU, 0xfef0cfe41e1700U,
  0xcb3cf6e5f924dc19U, 0xfb13141200c6280cU, 0x21012af64c4700d9U, 0xfcfcb1cd2e0500U,
  0xc44cf4ed0737d50fU, 0xf10300130d933df9U, 0x3de711e53d3900edU, 0x18058fd01d0600U,
  0xa335f5e8ec44c003U, 0xf091c262c813902U, 0x1fd60d014b2400fcU, 0xf0ba6f5fbef00U,
  0xe30d07eee23fccedU, 0x23030a111784280fU, 0x30212ff083e00f7U, 0xe1f0e2f9071c00U,
  0xf739f6f6fe21f60bU, 0x1713f90ff0e520e9U, 0x25eaf8e91c2d00d1U, 0xf60701da230200U,
  0xde54f2f9dd2eeb1bU, 0x90f013aeedf2be8U, 0x2802fce8371400f7U, 0xf6f614e70efc00U,
  0xe42efbfeda16ccfaU, 0xfd100d390de83003U, 0x251a0de6312c00f2U, 0x9f2e0f00d0200U,
  0xe613efe2f825d9ebU, 0xf805054821ee250eU, 0x18e011f4363a0007U, 0x2cf1daf4f6f600U,
  0xe510ebe5dd32f6f8U, 0xfc04031f16c7053bU, 0xf21104ea151d00f5U, 0xe616e9ec0b0800U,
  0xd82ae5f01027da00U, 0x82cfb2be6ea11f6U, 0xd9efffdf25fc00dfU, 0xedf8fae50ae400U,
  0xd633f60efc1ce6fdU, 0xfa0c0d22e5fa07f7U, 0xe9dcf3ed1c050000U, 0xedf01303ffe300U,
  0xfe180f120804feecU, 0xef0d1e2819011b0eU, 0xe5ff0bef03260011U, 0xef50afbefd400U,
  0x9fd0c0813fc08e1U, 0xeb0fff311e1311ffU, 0xefe917041a350017U, 0x2cf8fef2f4d300U,
  0xfb0210f2d1012309U, 0xf71ced171e00051bU, 0xccff00e70a1000efU, 0xf12a02e6020200U,
  0xf20edf020320e5fbU, 0x2f0070cfb041608U, 0xda0211ecf71000f8U, 0x3090cdc0ff800U,
  0xed07ecfe1813fcf9U, 0x80915100a131f14U, 0xecfd0eeb101b0006U, 0xe071bec01ea00U,
  0xf6f9000b12090bf3U, 0xf9f81b101b161914U, 0xfc0036fbfb0f0010U, 0x11e420e8e1ef00U,
  0xeff7190127f40bf5U, 0xd1016f81f0112f5U, 0xe31b401af2f1001eU, 0x2f30cf1eedd00U,
  0xf7fe180404da1103U, 0x112c0e211e09f118U, 0xb910f7e6230700e8U, 0x90a13fa070700U,
  0xcf3d4f3fb10fefbU, 0xad700fb001dfe04U, 0xb019fbe4fc1a00f6U, 0xc1c1ae1120c00U,
  0x1ce7d6eff5e5f6e6U, 0x16ef11ecef232f0dU, 0xe90e0df2ee2700f7U, 0x21555d7fdfd00U,
  0xef1f804ddee0df5U, 0x38fa12f7f915361aU, 0x10172a19fe2000fcU, 0x19f54ed5e4ed00U,
  0x1020b06eff40cecU, 0x16fd19030bee1b1cU, 0xf2093230effd00fdU, 0x8eb1c01edef00U,
  0xfb161c1408fef4U, 0xfe21fbfe04faf117U, 0xf4f9fdf5eb0300f7U, 0x5e2e7f9eb1800U,
  0x91ce8e2ffdbfd10U, 0xf9e2fdff18cff909U, 0xfddbfbf9081d00f0U, 0x3ead2060f1a00U,
  0xd81e03eed9f736e3U, 0xe9d122024db70118U, 0xfca706e036250003U, 0xff3df10e9f900U,
  0xc245130caf2c0fdaU, 0xe4dceffb46ba0f2eU, 0x21ab07f25e240010U, 0x3afe0ae7e6eb00U,
  0xba230f0cb557fce5U, 0x16e0f60224ade912U, 0x37d10f0160030026U, 0x4219ee05fed800U,
  0xdb000f04df3e2de7U, 0xde04809f598d3f7U, 0xffc30408f3190002U, 0xfcb6c902e53300U,
  0xd53614e7e2dce9f4U, 0x17f6f8eb32bfe203U, 0x5af0ecb154900d7U, 0x26dcdd2df10c00U,
  0xc43ce613c504e4d7U, 0xf21ef9043eccf3e0U, 0x21bb25e0202f00ffU, 0x3f0ca2bc7f700U,
  0x9b571752d823e2ebU, 0xcc49051458c4fadaU, 0x3aae26dc1b180030U, 0xfbecfc06b9ed00U,
  0x96264e1cc93ce3faU, 0xf203b0d30c0cce6U, 0x7fab230e0d340038U, 0x3bfc130bd1eb00U,
  0xf20729da962f3914U, 0x61f42a10f59cd3fdU, 0xfcf21009db2e00f9U, 0xdbc1c307182500U,
  0xb74debc216dade02U, 0xf2410c0e11c30d02U, 0xecd61ff0141f00d3U, 0x3fcd80526fe00U,
  0x911c1dee0edfdefdU, 0x9f66e62e2ccd33ddU, 0xebad1600e83400f6U, 0xe92fecff190000U,
  0xb91135f20e00d918U, 0xbf6cecee27e115ccU, 0x5e71d25d11d001aU, 0xeee529eaf3ef00U,
  0xd8e34d06d6fce132U, 0x3330b07fcc40cddU, 0x72c51d23f1250012U, 0x405120af0ec00U,
  0x1db39f8efde1530U, 0x2feb2efaf3bf12ddU, 0x1a08e4f3e51200f6U, 0xdd12eff50b2300U,
  0xc02ccb0e2e120211U, 0xe30f2d2a13f642efU, 0x14e5f3e0b73200d8U, 0xe744f513121500U,
  0xe4e5c7143c3be213U, 0xc32d2d390c4e3a10U, 0xf2df16f7dc0000e3U, 0xd31411f8320300U,
  0x400009dcfd2de411U, 0xdb0e061709291f2dU, 0xfe100f0fcefd00f0U, 0xb7e256def10e00U,
  0x35f9ff04e9f3e3eeU, 0xe7e6f6f615f62e32U, 0x2bdc0619ebf00010U, 0xbbed2b0724f400U,
  0x22e5fc15da9d08feU, 0xf1f30105f5f40401U, 0xf811fbf7240a00efU, 0xb1aea06071c00U,
  0xe3ebdf150b1ff6ffU, 0xeaddfce7d81e0711U, 0xee1403e210e700faU, 0xe2ede2e01d0c00U,
  0x19d2c5082223f102U, 0xdbaf2105e2301dfbU, 0xe0210604e0ea00c3U, 0xc3ea16e420fa00U,
  0x3308cffadbfefbffU, 0xfacb1c310b130719U, 0xcefb14e6faee00c1U, 0xbb1f30cb243a00U,
  0x2323e2ffc5e4e802U, 0xdda0923ffeb0d1dU, 0xe00604ff240400e2U, 0xe00c24fb3e0200U,
  0x27f2ea16eec0ebf0U, 0xe9ec0207eee9f3f8U, 0x29f9031d460300dbU, 0x3b1b21fb17df00U,
  0xad03626023057b4U, 0x12040a08023e04faU, 0x28e20415f2e100faU, 0x3e124df0a7b200U,
  0x36c15a03000b36beU, 0x42080409202cee0bU, 0xff00cf7e1ee00c2U, 0xd0ffbd68acd00U,
  0x2c973c1de7f92cf1U, 0x2c2c0d0a053fec2cU, 0xee100c0421e400bbU, 0xbdeedbddbeef00U,
  0x2bbe043915edebdcU, 0x21b41e1dd4fe44bU, 0xecf2f91549e700d6U, 0xed01edfddddb00U,
  0x19ebe90904f2b008U, 0xe6eb1df1f8161023U, 0x33d20d031cdd00faU, 0x32fa2f0d10f300U,
  0xf6d33bf0fd3346ecU, 0x4c02fdff10f21cdaU, 0x30e0dbfb1fd600daU, 0x340f36f4f2e400U,
  0x1add58fd100819acU, 0x40f1d5e918041dfeU, 0x8e6c3fd200000afU, 0xfa1707d9a7f800U,
  0xda1f17e702f0f6U, 0x25efec05f8fd2105U, 0xcdead9f7270b00beU, 0xe915f2f1ff1700U,
  0x1a03c3238a09e6fcU, 0xd4190a19ef1904U, 0xbdfced281cce00e3U, 0xfef0020d1ce600U,
  0x181efcfda10bbf4bU, 0x17eeee0213df23fbU, 0x27daf6f114010002U, 0xe5c51c081e0b00U,
  0x13f51510e919fbe8U, 0x3fe3f621df0c08d3U, 0x32fdc7d326f000f0U, 0xe9fcf30444fd00U,
  0xcea2d1c28f9d8b5U, 0x1ece0d080ddcf3d6U, 0xfdebc1020bfa00d4U, 0x926fa040d0200U,
  0x1b1d2b26eb04d0efU, 0x17050d0a06e4fac5U, 0xc2d9e8ff22d300d1U, 0x22053418f81e00U,
  0xfb27dc0dbe14eaf3U, 0xfdd30b03f5ab01fbU, 0xd6f0e01de8c70001U, 0xe6f13d13350700U,
  0x263000fcb8f9e5d9U, 0x31d30cf914b903f1U, 0x21ea0ec331120001U, 0xf8cbfcfd351300U,
  0xf01c0404fdf5f503U, 0xa0bf813ebc3f6cfU, 0x29e8e7ef251200f6U, 0x6142a16303300U,
  0xfd140601e2e0d1e9U, 0x1706f21207b80bb2U, 0x20f6bffc0c0f00dbU, 0xf4238031e3a00U,
  0x450b15f0caf0dcccU, 0x1601eb14ffb821c4U, 0x2f1c411f4fc00c1U, 0xe2174f2e382500U,
  0x2e0ce2fad21bcdefU, 0xaf4e512f69b00e9U, 0xf5eee102ddfb00f1U, 0xa6fc7f1c5d1d00U,
  0x3d20e503a6dee90aU, 0x31f8f51110a5efccU, 0xdc1af6de0a1400daU, 0xdedff20718ee00U,
  0xfaf5ee0a19daf901U, 0xc403f00ce8ffe7efU, 0x100ac9e6020700efU, 0xda1f15f0190b00U,
  0x3300cf21d6bdeb10U, 0xc40cfe3405fb0fd9U, 0x12e5defaacdc00f2U, 0xb9472ed92a6e00U,
  0x38fbdb2fb0e6dd25U, 0xbcf1f05113dae9bfU, 0xe4dbd32d8dfc00fbU, 0xac556801576600U,
  0x3ff2e615bedbdf1aU, 0x1afff414d4bcc3edU, 0xc9efe400cd030002U, 0xcf2f4507604a00U,
  0x4f31e717b28ce419U, 0x9f1f30eede3bedfU, 0xfbfe01ebd6eb00f8U, 0xdc0603000f0200U,
  0xfcefefee01f6e4f6U, 0x1f7f2f605e7effaU, 0x1f5fae704e600ffU, 0xe2211dfb291100U,
  0xfbfed8ec060bf9f2U, 0xf1cfeaf3fa0ee711U, 0xcbdfecd0ce9001eU, 0xf50e2cfe082600U,
  0xed2feae8fc19fe27U, 0xeccdc0e82105f1f2U, 0x3e007ea160200fcU, 0x51c1e05f53a00U,
  0xf422e502f52bfcfdU, 0xccf0b8e71efff6eaU, 0xfaeafaf6061000eeU, 0xf1152b01f93e00U,
  0x1a1debfff722e825U, 0xdde4efe8f90fdef4U, 0xd01de18100021U, 0x3613fceff31c00U,
  0xfde1dd06eaf00df5U, 0xf3e81df505eadef3U, 0xeb0213dd263200f4U, 0x2b250300030a00U,
  0xea01cc0ff106fee5U, 0xd8f11bfd1803c917U, 0xfcde22da1f4d000cU, 0x2928e610002800U,
  0xbb2fde06003ee3f9U, 0xe6150c0728e8d4f3U, 0x24f400f1083f0007U, 0x214000ee032100U,
  0x818c10e034ceb04U, 0xf3f4f8f9f4dbe3f4U, 0xcf0ee0720370004U, 0xf21cf6f0ee4100U,
  0x1513dffeee34cffdU, 0xdccfedff0112dceeU, 0xe8121724f1f6002eU, 0x110d0816ba2e00U,
  0xf6fe211bd4f93a27U, 0xef0e38f610bec1f3U, 0xdb0e36f9f6f00030U, 0x122d022aa0ff00U,
  0xd3013525d1fc4a19U, 0xa26420f00d8aae8U, 0xeaea2dfe0a01005fU, 0x1327cc1db3f700U,
  0xbf06181af2f73c25U, 0xed2a300e01f3cbfbU, 0x23fb12ebe61b0061U, 0x1b2c0329d90f00U,
  0xfdce081a00ea353fU, 0xe70d3af8edf2e718U, 0x2ee4e5fae329003eU, 0x350429f3e61c00U,
  0x36f8ee10d5d0fe33U, 0xffc919c608f9fefcU, 0x3d62842d9fa0029U, 0x9fa0e2dc12000U,
  0xfa4a0e0be905dd2fU, 0x1562fc0c0dcfe2f4U, 0x19d5303ed2dc001fU, 0x240400169a0000U,
  0xca1b1816d2fa1135U, 0xd93e170313c4dcf9U, 0xf6e42c25f2130058U, 0x2c041d0bade900U,
  0xe9e04217f1f6103dU, 0xde320dec0de50debU, 0xdd073ad9d30c0044U, 0x2dd5521ddd0d00U,
  0xf7e8f7f1f7c10244U, 0xf8281f0501f41fffU, 0x4e9fa11e9110037U, 0xcf071f4161500U,
  0x2a19ecebd4a0f138U, 0xddbfc0824d5450dU, 0x26e4f91dee12001bU, 0x1634e116ff0300U,
  0xe634331b132a081eU, 0xe940f9320bda2a16U, 0x30f6e74bebfc00e4U, 0x6151022f4ed00U,
  0xf20a2a2b1a39f426U, 0xbf2afb0aefcb321fU, 0x13fa1c3de3eb0020U, 0xf3f564f8e7e300U,
  0x33ee1c0bfe07051dU, 0xb2ef090d09f30b01U, 0xd7e9302beff00025U, 0xedf17ff3f50f00U,
  0x1af001f8d2cc04f9U, 0x3edfb0f03eb1322U, 0xf1dd0c130e24001eU, 0xfd2d73db2a3000U,
  0x3119f2f0a5cbf9f4U, 0x11d6f811fed20cfbU, 0xae7ff0a08fa00ceU, 0x260af5fcd9eb00U,
  0xf9e7e9fef6fa1cd1U, 0xf5c90ffcf107e8f6U, 0xbc8ea0befd00003U, 0x2b1d28f7cfe800U,
  0x1cd05f2efe754d9U, 0x16b01ef014fccffaU, 0xbddda05cdc00001U, 0x170f6d17f3d000U,
  0x39b91df70ed562dbU, 0x8c101e2fd48e2e2U, 0xfffcddefcad3000cU, 0x90f220215f800U,
  0x41e7bd10f5e0291fU, 0xc9bff2e9f16ad9deU, 0xc72dfb03add200f9U, 0xf2062bff3d2500U,
  0x2d1ee50719ba2aebU, 0xdae901e2fa7ffaecU, 0xf4dbf70218d400d1U, 0x35f7fb01b8c500U,
  0xeefa28f9f01320e5U, 0xfcb404e427fad202U, 0xfbe0f6f21bba0002U, 0x37eb300dc3ed00U,
  0x24cb1df3f8eb5307U, 0x33cb08e13fe0c300U, 0xfc13d90ef9cd0004U, 0x17011c110ade00U,
  0x41bb11e826e34913U, 0xf8e815e91318090cU, 0x1e2fdae5cdd200e7U, 0xf413e0ed350a00U,
  0x2900eafef0eb0c33U, 0xd0d61bd2ec1efb07U, 0xe777c909b1bd00fcU, 0xd0f50add342d00U,
  0x171bd62959c30f0aU, 0xb3edfedefe63f600U, 0x9e807ed1fe200f9U, 0x2901def4e7ca00U,
  0xefeb1d0be9110ce3U, 0x17c9f1f01ae3e2f1U, 0x200addd60bdf0018U, 0x2be004f0121700U,
  0x20d40c02f4051ee4U, 0x30d506d727fdc81bU, 0x61eee0302f50005U, 0x22f8fbf91bff00U,
  0x58c022152cf512f5U, 0xdef009cd1032f722U, 0xf61cea1300ee00d2U, 0x5e2fc0b260100U,
  0x44fbbf051cea0023U, 0xf6f816f0e903130cU, 0xc25edbffaff900d1U, 0xf0db08f23e3d00U,
  0x530c4273703c00fU, 0xb509ec270f253516U, 0xbfb0df4f3f80002U, 0x27d8e1010ed500U,
  0x11f022f7eaf80df3U, 0xfa050105fbf4d80eU, 0x221decebfd1c0034U, 0xc140301160d00U,
  0xfbef23f7eef50bccU, 0x15f40cfb1013d618U, 0xf41ef617f60b0007U, 0x221c100733ff00U,
  0x3de206f6edea09d0U, 0xd01601db0526052dU, 0xf521f014ebea00d5U, 0x120c1e0d12ee00U,
  0x35fcfc1e15e2ebe9U, 0xecf015150b001e17U, 0xd426f3f0c70500b1U, 0x2df62a00062200U,
  0x3336f5120b29d1d8U, 0x1cfbef312d0c3833U, 0xff037fdd7f70003U, 0xb040df8ceee00U,
  0x15e708fff613f107U, 0xe806fc15f708df1dU, 0x12ec0df8e6250015U, 0xeefd2ddcd6e200U,
  0x202b0419f10efa06U, 0xe2e6ed1d0b46d046U, 0xdcf21225e3fe0011U, 0x17e927e413e600U,
  0x3a3600f2c90c18d5U, 0xe1f1f911113bf94fU, 0xf813eb1605f400f5U, 0x2de7361216ef00U,
  0x41300611f2e619e5U, 0x16ea0eed201d261dU, 0x1611ebfcf50f00e0U, 0x1d1135f71a2300U,
  0x5036f9df1030f5d0U, 0x7304f90f39173b2cU, 0x0U, 0x0U,
  0x0U, 0x0U, 0x0U, 0x0U,
  0x0U, 0x0U, 0x0U, 0x0U,
  0x0U, 0x0U, 0x0U, 0x0U,
  0x0U, 0x0U, 0x0U, 0x0U,
  0x0U, 0x0U, 0x0U, 0x0U,
  0x0U, 0x0U, 0x0U, 0x0U,
  0x0U, 0x0U, 0x0U, 0x0U,
  0x0U, 0x0U, 0x0U, 0x0U,
  0x0U, 0x0U, 0x0U, 0x0U,
  0x0U, 0x0U, 0x0U, 0x0U,
  0x0U, 0x0U, 0x0U, 0x0U,
  0x0U, 0x0U, 0x0U, 0x0U,
  0x0U, 0x0U, 0x0U, 0x0U,
  0x0U, 0x0U, 0x0U, 0x0U,
  0x0U, 0x0U, 0x0U, 0x0U,
  0x0U, 0x0U, 0x0U, 0x0U,
  0x0U, 0x0U, 0x0U, 0x0U,
  0x0U, 0x0U, 0x0U, 0x0U,
  0x0U, 0x0U, 0x0U, 0x0U,
  0x0U, 0x0U, 0x0U, 0x0U,
  0x0U, 0x0U, 0x0U, 0x0U,
  0x0U, 0x0U, 0x0U, 0x0U,
  0x0U, 0x0U, 0x0U, 0x0U,
  0x0U, 0x0U, 0x0U, 0x0U,
  0x0U, 0x0U, 0x1a0000ed2b0600feU, 0x19190315ee00U,
  0xffef1624fe2409f0U, 0x1b2c1109f63dfcf0U, 0xff60a06ffe00015U, 0xfd1240ed13d600U,
  0x2bce270e24fa2101U, 0x2a2b190a0d4febefU, 0x1bf00e0f080100fdU, 0xf0ff1de1e5de00U,
  0x239d111a34052ef0U, 0xfe0b1a1b035df806U, 0xdfb10ff151100daU, 0xe8eefaf2d8f400U,
  0x16c4bf0e3c200becU, 0xef011bf0eb5be713U, 0xfef40cf61f0a00dcU, 0x7f2ecdec2ec00U,
  0xfee8ee0cfc14c8f2U, 0xebf41703f51bd0ecU, 0x13f505db13ff00f6U, 0xc001100a0eeb00U,
  0x11e42617252bf014U, 0x14060215e73717ecU, 0x9f9c8e110f500d6U, 0xd30b0ff52ad400U,
  0x31dd1e2200f2f7feU, 0x4061700fa2cf3efU, 0x4f0d2ff01f900c3U, 0xe42cf60613de00U,
  0xdae2b19ecf6ec0dU, 0xf200091cf71f0a03U, 0xee0efbd9f41400f2U, 0xda2902eae70400U,
  0x8cee11bea30e225U, 0xe3ccf309ef57f71aU, 0xe4060aed112a00fbU, 0xe6ff08ffe5f400U,
  0xd3d7de10d32cfa49U, 0xd9da0222f345d206U, 0x4fb05df070e00f4U, 0xa201fde820df00U,
  0x18f2161cfa0ed0ffU, 0xf0fc0623df3c00d4U, 0x309cae611fe00e0U, 0xb9f101ea42d900U,
  0xd0f1d1be6f7db01U, 0x4ef1b0bee0aeed4U, 0x2fbcecdfbe500dcU, 0xe71b27f20ceb00U,
  0x12ee091dd521e50eU, 0x50a0afcf804f7e9U, 0xf4e20edff6f60002U, 0xdd0e03f9d90a00U,
  0xf9f9e711d94fbf1aU, 0xfadee4f0fe2a011fU, 0xdaf701cf030100f4U, 0xd5ed19f1cc1000U,
  0xdbe6ea24f32ae946U, 0xcff1d900f878eef2U, 0xf9340de8171200f9U, 0xea4beae23bef00U,
  0xf1d21b1bdde41eU, 0xc009350ade3becd6U, 0xef00ee091b0100cdU, 0xec1ef0ec3a0b00U,
  0x4f6da021accdb0eU, 0xe91b3514db2214d5U, 0xf80ade0609d100e7U, 0xf525fffa193900U,
  0xf1d8e3271bf3da22U, 0x70409e0e511e1e4U, 0xe4ecf103f7fa00f5U, 0xf407120d071700U,
  0xfee8f824090ac943U, 0x1605f0e2f22bd5ffU, 0xb31709e3c1d800e5U, 0xf0d72c0cd52600U,
  0xed00fc2925f9035cU, 0xeb1becda087fd3f5U, 0x9f3fe2f0f2da00deU, 0x928e9fdedf400U,
  0x11ebdf4318ddf912U, 0xb8ff250be749de17U, 0xb120d1fa1af00008U, 0x2551f6f80c0d00U,
  0x1aeee15021e4eb2aU, 0xbf1f3d300a46d517U, 0xbdf5ebf2e9c60010U, 0x2a0cf800275a00U,
  0x1acdd95405f2f45dU, 0xea26261e1135bd0cU, 0x99fadcf9c9cd002eU, 0x11ff190e184900U,
  0x25eb0d15f81bff3eU, 0xf42106d9121eb001U, 0x871fe5febed70006U, 0x101021ef05500U,
  0xf22907183022fa43U, 0xd9180bd21b5afb22U, 0xe813fef5defe0040U, 0xcaf10306f43400U,
  0x930caea06e3ea45U, 0xebf7f6f9fbebf611U, 0xdbfefbee13110038U, 0xeb0aef06f96900U,
  0xd946c4f90dfdfe1dU, 0xc5cfd1000be1f604U, 0xd30bfd0a21210069U, 0x190e010ded6800U,
  0xea3ff20311e3e012U, 0xc3c1e9f01ec7f3ddU, 0xc903fcf728070023U, 0x1605012fef3700U,
  0xfd08fffef8dddef8U, 0xd6e0e5d929c506f7U, 0xd6edf80cf4f400fcU, 0x7e405f22800U,
  0xeb0ef6feedf2c1fcU, 0xf5e7f0ea26cbe101U, 0xfdd7fdedef2c003fU, 0xde1002f9054200U,
  0xfb3ed000e9d7e61fU, 0xeef9ebee1be0f508U, 0xf6ea09e313350048U, 0xef23f204084500U,
  0xd53bef07d5ebf60cU, 0xebf2c9f40def0d13U, 0xf0f608d4192a003dU, 0xed30ecffea2900U,
  0xdc20fd180f00fa00U, 0xdefee5d01cebeadbU, 0xe606fde11e20002bU, 0xa111618d7f000U,
  0xf31cf7060b10e306U, 0xe50a08170bca08caU, 0xe2eb000b00580022U, 0x16fae809e2f500U,
  0xf20ee9f7ef06bb1aU, 0xfe06180304a7eae2U, 0xee903f9f4100017U, 0xe92afffbfc3600U,
  0xdf45dc10e0c7b802U, 0xd906f4f91b00ed19U, 0xfdec2324f12d0022U, 0xff29e90cf51100U,
  0xfa13de09bff5ddffU, 0xaa26e2111eff1718U, 0xe8be11331122002bU, 0x201ac2dae1e300U,
  0x929211ed3100105U, 0xee0bd8f908d1f1f9U, 0xe2ee0d33f614001cU, 0x34f31af1cff100U,
  0x181e3a15f2fc1d0bU, 0xb00111efac01dcbU, 0xf7d81923c84d0013U, 0x35e719fa04d700U,
  0x16f8f9d8d6f8f206U, 0x30030d15f19e0bd3U, 0xcbc5f204fa080001U, 0xe22bf500f31600U,
  0xe62d150dff02ccf1U, 0x1f6f7ef250ce312U, 0xddbe002b03cf0006U, 0xf019ed16f0f300U,
  0xed0e2a02f927eff3U, 0xc500e1eb30ffde21U, 0x15fb286601f00005U, 0x21ead70becde00U,
  0x1e252803e90813f0U, 0xd8fbdef019dbe242U, 0x2302203ef1430001U, 0x16f51afde6df00U,
  0x151322fed4f91beaU, 0xee04031c16d01d29U, 0x6e00511036400faU, 0x380f2ef422bd00U,
  0x1cf90ac4c2fffbf7U, 0x31e00911ee8132ffU, 0xd5d7feea18ef001fU, 0xfd39e5040d0600U,
  0xde4704efee21e701U, 0xefde7e710e402e6U, 0xe2f9040a1f000bU, 0xff4ce40f9fc00U,
  0xe5323df11b2cedf9U, 0x1a2adbd10ed80119U, 0x35fdf334230f0002U, 0x8f8ca11dfd300U,
  0xd42b02f33a2412eeU, 0xd0e0f71211f4ed23U, 0x3221f541210300e7U, 0xd6fb1113b5be00U,
  0xde17e4f1192421dfU, 0xefcffd4525f00f13U, 0x2de90b02391500f4U, 0xddf91cf3ed9900U,
  0xf3f302f6c0260ed5U, 0x1debf93df3ad0bf7U, 0x10e40aff0a030000U, 0xf4e8d5fef7f500U,
  0xf82b2b0104f8e8f9U, 0x1501fefdf7f7fae3U, 0x22e0041402eb0008U, 0x1ae4d9ddf8cf00U,
  0xdb5046e5ef0b09d9U, 0x280d21f707cf02ecU, 0x15d3fc04e6ec001bU, 0x1fea27fd01b800U,
  0xe11641d6c01304d8U, 0x5e040d0036ae13e8U, 0x4c905eeb7df0030U, 0x1dfb4506f3c300U,
  0xda0c46f7ae3b09f8U, 0x57f6f10101eaf4f2U, 0x31e305f6d4db001bU, 0xef0954fef4ca00U,
  0xff2425fbcf421ff1U, 0x32e8fcf0f5f9f0d9U, 0x12e819fff4f6001dU, 0xf1f9d503210100U,
  0xd34013d8e0f5f106U, 0x6302504eecffbeaU, 0x14e5031b07cc0009U, 0xbf8f509170f00U,
  0xad5932d8e4f91908U, 0x2143ed10fbdbeaf0U, 0x12dce7f403e60006U, 0x101f201b232300U,
  0xba2539dfedf7fa0cU, 0xf32bd2f62a1af3efU, 0xf10cf9ebf1e9002aU, 0xf0122a10e04a00U,
  0xd0312be104fb15f9U, 0xe0250fd4f538dff5U, 0x3ff90e0ec2dd00f9U, 0xcc0a2b0ce91d00U,
  0xe4252517f8e62cfcU, 0x15fd22fdfb1dc5dfU, 0x191ef2d30bef0004U, 0x93e07060a0000U,
  0xcc05e313e1f83812U, 0xd7f44f2df7df0ddfU, 0x100b0ad529f500eaU, 0x2926090e2f2200U,
  0xbd09ef52e70a32fcU, 0xdc0e501cfe0adefaU, 0x16f4e0c434e5000dU, 0x2651de09104700U,
  0xa408ff0d1d241d23U, 0xe6fc0f17112fe1e5U, 0x2211ed05eb10001eU, 0x11fad609f47f00U,
  0xd914f41a1f1a1d12U, 0xbaf419fe0f03a606U, 0x727da24051b0018U, 0xde1d1e9f94600U,
  0xd37e72b23f2fa1aU, 0x92d61afb161da3fcU, 0xfc13e3c81bf20004U, 0x263af50bf30100U,
  0xe2b5215bfc133912U, 0xf0ee270de921ddfeU, 0xe5fb08ca3fd80016U, 0x2454f20dea1400U,
  0xf0b54a3f130829ffU, 0xfae63616f102072cU, 0x22132ce233f4001eU, 0x1823b606c33200U,
  0xd9f5211022283002U, 0xda1f10e80af6f627U, 0xfc1f16f8f912000aU, 0x6d7c9f69f3a00U,
  0xcc12f6100a0013e3U, 0x9c0a34fc19032215U, 0xf905f90deb0e00faU, 0x14deb6f3ea0000U,
  0x1140d40808f808eeU, 0x9fedfb172300ee2aU, 0xe2dd090de7f000e4U, 0x20f51f14cbf600U,
  0xf5d91b15e01ee603U, 0xdaf5df090107e42dU, 0xe9d1360cede7001aU, 0x4d52efbe8f100U,
  0x1de521fdad11090dU, 0xfcfae3fa0b0ee736U, 0x22ed2c14f907003dU, 0x15da07f5d5ea00U,
  0x6fd22f2da060409U, 0xfa17eb1a20ec1226U, 0x2ef90c0405090037U, 0x25e81315cedf00U,
  0x1fe1300e2010ce6U, 0xc40106141ac23330U, 0x32ec080a1514000fU, 0xe411f7f8c600U,
  0x2fff5efe80612c1U, 0xf0f002fe1dbe1408U, 0x0U, 0x0U,
  0x0U, 0x0U, 0x0U, 0x0U,
  0x0U, 0x0U, 0x0U, 0x0U,
  0x0U, 0x0U, 0x0U, 0x0U,
  0x0U, 0x0U, 0x0U, 0x0U,
  0x0U, 0x0U, 0x0U, 0x0U,
  0x0U, 0x0U, 0x0U, 0x0U,
  0x0U, 0x0U, 0x0U, 0x0U,
  0x0U, 0x0U, 0x0U, 0x0U,
  0x0U, 0x0U, 0x0U, 0x0U,
  0x0U, 0x0U, 0x0U, 0x0U,
  0x0U, 0x0U, 0x0U, 0x0U,
  0x0U, 0x0U, 0x0U, 0x0U,
  0x0U, 0x0U, 0x0U, 0x0U,
  0x0U, 0x0U, 0x0U, 0x0U,
  0x0U, 0x0U, 0x0U, 0x0U,
  0x0U, 0x0U, 0x0U, 0x0U,
  0x0U, 0x0U, 0x0U, 0x0U,
  0x0U, 0x0U, 0x0U, 0x0U,
  0x0U, 0x0U, 0x0U, 0x0U,
  0x0U, 0x0U, 0x0U, 0x0U,
  0x0U, 0x0U, 0x0U, 0x0U,
  0x0U, 0x0U, 0x0U, 0x0U,
  0x0U, 0x0U, 0x0U, 0x0U,
  0x0U, 0x0U, 0x0U, 0x0U,
  0x0U, 0x0U, 0xfdf702f80afb00f8U, 0x603fe0411fb00U,
  0x2ed0808fef7ebf6U, 0xe10e9fb14fde301U, 0xedf81ce9091300e2U, 0xdf214e715ff00U,
  0x1e906fd2200eaf9U, 0x1a09fefb000002f6U, 0x1f80cf2140e00f1U, 0x50c15fa0de500U,
  0xf7d30d001220ec0aU, 0x301fc14f613f3dfU, 0x150005020bf500e3U, 0x91111051bc700U,
  0xf7dc18ff0f2813fcU, 0x70101f6e911eee7U, 0x20f2010906f300f7U, 0x150016fdf2cb00U,
  0xd001b0712362003U, 0xe900df0c011de5faU, 0xf209f9ea04f3000eU, 0x282300f910fd00U,
  0xf0f2fcf50df51af5U, 0x10f0fe0507f5f5f4U, 0xe203def00d09000eU, 0x12107ef0bf100U,
  0xf718ed00f91ad7U, 0x1a06120ef3f603dcU, 0xdcf2e9f709120011U, 0x50813e7fae100U,
  0xf0ed04f0f30701dfU, 0x8fc0efed4f9f0d7U, 0xf9f808daf9f300feU, 0xf21c11000dc100U,
  0x7dd1403022015f9U, 0xf0060dfede01f0dbU, 0x200413f118ec0002U, 0xe61409eef9dc00U,
  0x1e61e071628f7fbU, 0xfd0c0d05fd1ffdf0U, 0xdf14f1171ce8000fU, 0x18151620c50000U,
  0xf5eb37f81bef55fdU, 0x2b140ff8f3fb04ebU, 0xd010e31624ee002cU, 0x2213300d80100U,
  0xe9f436fe1dd44307U, 0x1ff40de3ee38fec7U, 0xcde5edf1feeb0012U, 0xe6fd49e1e70e00U,
  0xc10e22f708e41e1cU, 0x11e7f9fbe2022ba9U, 0xf9d9e7d6e2020028U, 0xe82f610e0afa00U,
  0xdbea150d0c040114U, 0x3e9d8f72703adU, 0x300c01d5fdf700ffU, 0x31c0ef7f2ff00U,
  0xe2dc20001409ef15U, 0x50af8dcfa23f7c6U, 0x60830051be80011U, 0xae8102ab40600U,
  0x1cf42ff849f63d0bU, 0x2139fb0d041909feU, 0x9b14ea1930dc0014U, 0xdcfd0d10ad0b00U,
  0xe2f65d0d46cc541cU, 0xf81ae8de0b3ee10dU, 0x8bc9caff31d3002aU, 0xe5f01414cf1800U,
  0xded247032bcf1443U, 0xf01f5ede727e6b5U, 0xb2f0cfd8f5d00026U, 0xf5143e42e83d00U,
  0xecdb43fc2fdc1c1bU, 0xa0108edd341dd87U, 0xf8f7ece3e9ec00e6U, 0xf82addeccd3900U,
  0xe8ee2eec02fe05eaU, 0x7fb0afde72dd0c3U, 0x5e1611fb07030034U, 0x14d20a26ee0e00U,
  0x62155174b1b2527U, 0x2057151911f71509U, 0x34f2d1f119e8002aU, 0x24e1d83df81e00U,
  0x260e7f07623d1736U, 0xed7404ff1019ece7U, 0x5fabdde56eb0048U, 0x2507df57d92f00U,
  0xfee6790b6940303fU, 0xc579eadf0c2fca9bU, 0xce02dcb73bc00011U, 0xdebd120bd3200U,
  0xddd27fe70001d1aU, 0xd31cf8cff164f4c7U, 0xda09dcf5fff300e3U, 0xbeadff1d54600U,
  0xf8f815f813d907ecU, 0xd8ef06d1ff13ede6U, 0x0U, 0x0U,
  0x0U, 0x0U, 0x0U, 0x0U,
  0x0U, 0x0U, 0x0U, 0x0U,
  0x0U, 0x0U, 0x0U, 0x0U,
  0x0U, 0x0U, 0x0U, 0x0U,
  0x0U, 0x0U, 0x0U, 0x0U,
  0x0U, 0x0U, 0x0U, 0x0U,
  0x0U, 0x0U, 0x0U, 0x0U,
  0x0U, 0x0U, 0x0U, 0x0U,
  0x0U, 0x0U, 0x0U, 0x0U,
  0x0U, 0x0U, 0x0U, 0x0U,
  0x0U, 0x0U, 0x0U, 0x0U,
  0x0U, 0x0U, 0x0U, 0x0U,
  0x0U, 0x0U, 0x0U, 0x0U,
  0x0U, 0x0U, 0x0U, 0x0U,
  0x0U, 0x0U, 0x0U, 0x0U,
  0x0U, 0x0U, 0x0U, 0x0U,
  0x0U, 0x0U, 0x0U, 0x0U,
  0x0U, 0x0U, 0x0U, 0x0U,
  0x0U, 0x0U, 0x0U, 0x0U,
  0x0U, 0x0U, 0x0U, 0x0U,
  0x0U, 0x0U, 0x0U, 0x0U,
  0x0U, 0x0U, 0x0U, 0x0U,
  0x0U, 0x0U, 0x0U, 0x0U,
  0x0U, 0x0U, 0x0U, 0x0U,
  0x0U, 0x0U, 0x11a001a191a0015U, 0x5ffe9fc201c00U,
  0x2f3ca0504131f27U, 0xf0e0090ac40e3302U, 0xa2806050c1e00e6U, 0x818d0ce401d00U,
  0xf01ccaff0a35eb20U, 0xbcaf080fd2f92b27U, 0x1c102415313b00cbU, 0xede0e0461100U,
  0xf22bccfa1b43c3f1U, 0xdbd7051bf0f22c1dU, 0x3bf31212310400ecU, 0x1ebcbeb412100U,
  0x736b1e40f26aee0U, 0xfdf4eb3108c0290aU, 0x26bcff08181700f7U, 0x4f6b910fcf600U,
  0x329e9f2f4fa9addU, 0xf2fdca270db5330fU, 0x13150b070df8002dU, 0xd938ebfe2d1100U,
  0x1c03c20afd12f64aU, 0xf3d4120bc1131dd1U, 0x90520f2fc180005U, 0xfbf8fbed340b00U,
  0x1519d60be7190013U, 0x16df0b0ae1fa10edU, 0x1fb20ef0c3e0007U, 0xfae013fa19e900U,
  0x1f00e7e3121bf0f9U, 0x15ec0635fd14230eU, 0x24ee2b041c17000dU, 0x7e816f222e300U,
  0x131ffad11b12e7eeU, 0x80fc83eed151afdU, 0x2dc80e050a0e0009U, 0x7eae4ed45f500U,
  0x1e3ce3e7e505e1d4U, 0xef07a9381bd6161bU, 0xef7d723f4002eU, 0xdd730efe1a0c00U,
  0xf528b90afaf1db5aU, 0xf9c5280cd6081ddbU, 0xc19e5d01d0a000bU, 0xe434f9e60a1d00U,
  0xee15cbe4f0eae207U, 0x4e40823f204ebeeU, 0xfd080cde110d000eU, 0xe80500dc0d0300U,
  0xeb0813f717ff06dcU, 0x1010e09f635f105U, 0x12ff2fe319280006U, 0xbf411d3ebe600U,
  0x3ee11ee40fd1cf7U, 0x1311fd24dc1e0003U, 0x2b062a1729fb00e3U, 0xff116e724f900U,
  0x110f20411dcfcf7U, 0x9e321f8010c16U, 0x516dce15afa001aU, 0xe57ffee1fe0800U,
  0xfb18a0210b00f63dU, 0xe8c829fde30229ceU, 0xe509dde519050000U, 0xf95901e7d30300U,
  0xb21c708040af9ffU, 0x6e20c1bf3190cc7U, 0xedffffda0116000dU, 0xf91137d7e80800U,
  0xf71805f70b10eaU, 0xcfd0826f72cece1U, 0x7ec13ecfe010017U, 0x22f446e3e30300U,
  0x4f525eee3f519f5U, 0x1e030803ed1aef09U, 0xe10e300e1ce200fbU, 0xbfd3fdbeaf000U,
  0x11f3f00aede70aefU, 0x7fd01e3fb0d001fU, 0xd36c6f241fd0008U, 0x2435e3fa190800U,
  0x8ebd5230cf42420U, 0xdff22c09ea1f1af5U, 0xe841dbf71bfb0023U, 0x333ff7e5fa1e00U,
  0xfddfd42a39071b11U, 0xfbf53903d7110c0bU, 0xe81efa0af4ed001eU, 0x283717e8f83200U,
  0xfaeace2711151315U, 0xdca19ecf918d8faU, 0xe2081df7e0f2001fU, 0x2a1c33c6f83200U,
  0xefeffa18e1040e19U, 0xffc506ebfe1ad31aU, 0xb60f14fbf8e40027U, 0xf0327d2fa1600U,
  0x16f8f613fa000719U, 0xe3db06f00827f01bU, 0xf70903f3d1df00f8U, 0xe606f903dee900U,
  0xdbf1fae1dcdbU, 0xf90006fe19eef5f4U, 0xf9160b01fcec00e9U, 0xe40dd108f2e300U,
  0x3e1030f0be2dfb0U, 0xea2af80b2bfce108U, 0xfb291a39f7d2001bU, 0xee1dc90befd700U,
  0xf1f72c0847e60af7U, 0xd63eeff50c07a4f9U, 0x18101e392ae800f7U, 0x62fbef428fa00U,
  0xd908181345fe080cU, 0xe40cfefdef07b6f7U, 0xfa2e0e321dd500c6U, 0x1108fd170a1c00U,
  0xfd0d1c07260828f2U, 0xe71bfbedf10ba5d1U, 0xb04f1f1f3f80017U, 0xef1def081af600U,
  0xf5eff00bead2050bU, 0xe6fb26f7f5e8f8d8U, 0xa331715c5060026U, 0xe422de1517e800U,
  0xd4e32408e2e901f5U, 0xd749200311f5d9f7U, 0x191d343ce0d5002cU, 0xe30ac2f114da00U,
  0xd0163df30afcfa16U, 0xd338ebec0114d323U, 0x1525402810b200e8U, 0xdc1bcedf2a0c00U,
  0xe0e12f040aeffa21U, 0xfd19fad5fb1cad0bU, 0xf44422033cc100b0U, 0xd235cfed184a00U,
  0xeef5290f2bfc0a05U, 0xf9221dea0102b0dcU, 0x11f90506eedf0036U, 0xfe19e3190cf000U,
  0xe7d50509e5c82527U, 0xb8234207ebcef8cfU, 0xfc150613d9fe0018U, 0xfd1ffe2701f000U,
  0xadea1d30ebd9272cU, 0xe05d26f60302dfd8U, 0x1240afafdd40038U, 0xa1fbffb1a0500U,
  0xc215f30c11f81b5bU, 0xf0ff13de1d14b300U, 0x23250ff22cdf0014U, 0xf825dccc242200U,
  0xf4021201f9e61432U, 0xf50108d00619ce05U, 0xf41b08fc49fb00c9U, 0xeb26b6f5e82600U,
  0xede9fdf813e3e602U, 0x8370ac3000cf1fbU, 0x3125f7fbe5de0033U, 0x4e161328feeb00U,
  0x6c0e21ee8d66547U, 0xd5ff7c0fdfd30ec3U, 0x1170ce2c3ea00fcU, 0x27212df10bf100U,
  0x9d4f635fecf2835U, 0xfa034501e905e6cdU, 0xeb08f1d9fd18000fU, 0xff1314e72c1f00U,
  0xec0d1621fae6f93cU, 0x1fec180c14f9d3beU, 0xa0911e2130f000fU, 0xeb06eddf391800U,
  0xfa25240e1adbfe0cU, 0x40ff8ff0418ebe8U, 0xeafb01ea2a2b0010U, 0xef13d0e0fb2100U,
  0xf304f0ed0cdd0216U, 0xff18fdfff5f7fae8U, 0x3907ef1be2f2001bU, 0x42f7170c2efe00U,
  0xccdea1f1bf57f25U, 0xea0644f2d6003af7U, 0x331827f4d3010026U, 0x3ffb36e225f000U,
  0x1ecbe3112df6552dU, 0xf9f14802e1e443ccU, 0x1df736d2db09004eU, 0x1de426b5242600U,
  0xfd14edf5faf30f1fU, 0x20f9290bf2dc2fd5U, 0xe0f41feddb1c004dU, 0xf9ec14ae432b00U,
  0xe71ffbebd8f600f3U, 0x10102304fb03fee3U, 0xd0f001f1fe240055U, 0xfa05f8ea181d00U,
  0xef1ff3f1ecf70617U, 0xf5230cfbf404f6f1U, 0xe20f30f17160034U, 0xfd3fff001b2a00U,
  0xaffc01505072b32U, 0xd9ba110dd91df9faU, 0x1619f0f4f02f0004U, 0xee15eef1254100U,
  0xc0cc1120a232344U, 0xbdae2003e01b0404U, 0x2efaf00ffc4800feU, 0xf51603e92c6f00U,
  0x1414a016012cf425U, 0xa3bd270ad7f31e0dU, 0x350ce307c6190001U, 0xf53016f3535f00U,
  0x150fa3fe0700dd02U, 0xbbd9fe17fdf72529U, 0x714fc19eb11000fU, 0x50f14d0304300U,
  0x1b12f81d04f6fa1aU, 0xddf1e01228330f42U, 0x150eeee631f80053U, 0x2d7af9fce42c00U,
  0x2def921bfe1b484cU, 0xce981ae9f20008f4U, 0x1d170dcbfc2f000dU, 0x44a05e2fb3600U,
  0x27079b17d72e3e2eU, 0xd8cd21040e1d15e8U, 0xfdf91f00e02a0022U, 0xfe0e1af3eb3800U,
  0xfeeb9fe9142c0b24U, 0xc7fa551ed129e1fdU, 0x10dd0c09f2230000U, 0x8f210e21a2500U,
  0x4e0aee758fff413U, 0xc7171a22de0d0600U, 0xe91d050df1350009U, 0xf7fa07d7523100U,
  0x1016d71b4bdfc70fU, 0xc241e700223cf039U, 0x131bfc0840e20030U, 0x357f070aba3700U,
  0x27fec7140c1a2e47U, 0xe4941bdfd3291208U, 0xfe1cf30ff73b000fU, 0x224408f3ef2c00U,
  0x14dea9ed1df8242eU, 0xdbd22e10d3241fe9U, 0xde073402d9420003U, 0x29e31deee3c800U,
  0xebcfe0c42ce70209U, 0xdbfa1f18cf4810d6U, 0xe30640dde72400e0U, 0x23d04addf7cb00U,
  0xeda08be3bc8dd26U, 0xfa21f630eb342ed0U, 0xb6472700ed2000f1U, 0xe7002edf2a1500U,
  0xf40d1ddf30dfd214U, 0x458cf1f0c420e07U, 0xea0a0a0a5af10020U, 0x186e0c28e00f00U,
  0x26f4090017ed0c32U, 0xde6fad2f523df0aU, 0xdc0909300de20017U, 0xe2a371fe30400U,
  0x38d115c210db1719U, 0x14ebefe7041cd9faU, 0xe9f31922e2ec00faU, 0x1ce44dee1d100U,
  0xf1c02bc0f7be05d4U, 0x1dfbde0bf727fadcU, 0xd0ec1514f8ef00e9U, 0x13f42d05d1cb00U,
  0xeec053c924aae808U, 0x4344d9eede2720e0U, 0xd5072c10daf900d7U, 0x823381ffe2500U,
  0xfadd3ed82ed2e7feU, 0x3363d4f3052feafbU, 0xd00925fa13ea0004U, 0xa2af20df9f500U,
  0x200015081dd8ed10U, 0xec24fa071f12defdU, 0xe21ef108fdf700fdU, 0xe51e3227e4ee00U,
  0x1bf224e71fdeff12U, 0xfe34f2fd1c0cdf0dU, 0xcc0de11eeaf80004U, 0xe6033d1ce1df00U,
  0x7f433c1eeebe5f2U, 0x2f25fffa1634f81aU, 0xc7d9001502ce0007U, 0xf50d5a3218e800U,
  0xe6e545f7f7d2e620U, 0x2d3bfe0ae332f3faU, 0xec0512f300e7000dU, 0xfa1f3f001f1a00U,
  0x23dc23040dd40114U, 0x1927fecefe2adff6U, 0x2ff810174c21000bU, 0x56f9ed01213100U,
  0xcee50f0949282fU, 0x28d9ff1bbd1d5217U, 0x47c30e19172a00a5U, 0x56d307d8090d00U,
  0x3dddae1dd6fda64U, 0xeb1fc3eced74910U, 0x56c106242c0e009dU, 0x33dc11c0df3500U,
  0x32fcced5f13bccfdU, 0xd0ad742e5b16315U, 0x3cfcfb2bffe000baU, 0x19efe7fde01e00U,
  0x19f5d1ce0000c8f4U, 0xf92a0156149f3c0cU, 0x6dd0814f60200ecU, 0x30ac7210de800U,
  0x121403f6ddedce14U, 0xb1af71911d22d1fU, 0x291c361643fc0016U, 0x28fed3e03d2300U,
  0x11cab9f00b630051U, 0x41cc1f08c9222af7U, 0x1ecd670c49f700afU, 0x4ad5f1ee4ae300U,
  0x7d7c8c2e240e51eU, 0x61ed0810dbec39e3U, 0x36cb6e0c290300b2U, 0x29b900df40e000U,
  0x25f8f09e0704f4d9U, 0xdfdcd2af2fb35feU, 0x4e641f9ef1700a9U, 0x3db9f5dc21fb00U,
  0x272cfcbceef4cce0U, 0xfc48a46415d810edU, 0x19b80b0db32f00cbU, 0x61d5d525320600U,
  0x453e04e1a4dcf2f7U, 0xa4cb03b24d13225U, 0xc3c30ef5e110029U, 0xe36f1d15c1f00U,
  0xecf3c9c03120d34fU, 0x43d520f5e84eee07U, 0xe0221af0340e0003U, 0x1cffbd958f800U,
  0xced11eab3cd9e806U, 0x5de20522ef3cd6f8U, 0xe7161ffcf20d00c4U, 0xdb43de62edb00U,
  0xef0543b72dbe04a3U, 0x3e121123f121ea0eU, 0x1e073bd1d83200abU, 0x1eea0fdb210500U,
  0xfe3402ededd5e5cfU, 0x272fb24914e6073cU, 0x6bb17c00cf3500fbU, 0x1ad4d5d441fa00U,
  0x2251fce391e0d5c8U, 0x362ea55e20810e31U, 0xf35613325c420018U, 0xe14413f64e1a00U,
  0xe0d9fe14ff6f834U, 0xf1c70df5ff77f316U, 0xe82b2e103d620048U, 0xdcfe26e8411f00U,
  0xe2ecefa834c0f701U, 0x6f11f3150559fdf6U, 0xe11e3ae244190007U, 0xe9f923ff2e1c00U,
  0xca0324a93cc417f9U, 0x4d1bf2fbe2230ce0U, 0xf32b370f0ae600deU, 0xf5ee0e050b2c00U,
  0xd82244ccffcad6d5U, 0x4725e91dfcfc2109U, 0x1ae9620b000300ecU, 0xdcebd21e371d00U,
